{
  "version": "1.0",
  "truncation": null,
  "padding": null,
  "added_tokens": [
    {
      "id": 0,
      "content": "[PAD]",
      "single_word": false,
      "lstrip": false,
      "rstrip": false,
      "normalized": false,
      "special": true
    },
    {
      "id": 1,
      "content": "[CLS]",
      "single_word": false,
      "lstrip": false,
      "rstrip": false,
      "normalized": false,
      "special": true
    },
    {
      "id": 2,
      "content": "[MASK]",
      "single_word": false,
      "lstrip": false,
      "rstrip": false,
      "normalized": false,
      "special": true
    },
    {
      "id": 3,
      "content": "[SEP]",
      "single_word": false,
      "lstrip": false,
      "rstrip": false,
      "normalized": false,
      "special": true
    },
    {
      "id": 4,
      "content": "[UNK]",
      "single_word": false,
      "lstrip": false,
      "rstrip": false,
      "normalized": false,
      "special": true
    }
  ],
  "normalizer": null,
  "pre_tokenizer": {
    "type": "ByteLevel",
    "add_prefix_space": false,
    "trim_offsets": true,
    "use_regex": true
  },
  "post_processor": {
    "type": "TemplateProcessing",
    "single": [
      {
        "SpecialToken": {
          "id": "[CLS]",
          "type_id": 0
        }
      },
      {
        "Sequence": {
          "id": "A",
          "type_id": 0
        }
      },
      {
        "SpecialToken": {
          "id": "[SEP]",
          "type_id": 0
        }
      }
    ],
    "pair": [
      {
        "SpecialToken": {
          "id": "[CLS]",
          "type_id": 0
        }
      },
      {
        "Sequence": {
          "id": "A",
          "type_id": 0
        }
      },
      {
        "SpecialToken": {
          "id": "[SEP]",
          "type_id": 0
        }
      },
      {
        "Sequence": {
          "id": "B",
          "type_id": 1
        }
      },
      {
        "SpecialToken": {
          "id": "[SEP]",
          "type_id": 1
        }
      }
    ],
    "special_tokens": {
      "[CLS]": {
        "id": "[CLS]",
        "ids": [
          1
        ],
        "tokens": [
          "[CLS]"
        ]
      },
      "[SEP]": {
        "id": "[SEP]",
        "ids": [
          3
        ],
        "tokens": [
          "[SEP]"
        ]
      }
    }
  },
  "decoder": {
    "type": "ByteLevel",
    "add_prefix_space": true,
    "trim_offsets": true,
    "use_regex": true
  },
  "model": {
    "type": "BPE",
    "dropout": null,
    "unk_token": "[UNK]",
    "continuing_subword_prefix": null,
    "end_of_word_suffix": null,
    "fuse_unk": false,
    "byte_fallback": false,
    "ignore_merges": false,
    "vocab": {
      "[PAD]": 0,
      "[CLS]": 1,
      "[MASK]": 2,
      "[SEP]": 3,
      "[UNK]": 4,
      "!": 5,
      "\"": 6,
      "#": 7,
      "$": 8,
      "%": 9,
      "'": 10,
      "+": 11,
      ",": 12,
      "-": 13,
      ".": 14,
      "/": 15,
      "0": 16,
      "1": 17,
      "2": 18,
      "3": 19,
      "4": 20,
      "5": 21,
      "6": 22,
      "7": 23,
      "8": 24,
      "9": 25,
      ":": 26,
      ";": 27,
      "<": 28,
      "=": 29,
      ">": 30,
      "?": 31,
      "@": 32,
      "A": 33,
      "B": 34,
      "C": 35,
      "D": 36,
      "E": 37,
      "F": 38,
      "G": 39,
      "H": 40,
      "I": 41,
      "J": 42,
      "K": 43,
      "L": 44,
      "M": 45,
      "N": 46,
      "O": 47,
      "P": 48,
      "Q": 49,
      "R": 50,
      "S": 51,
      "T": 52,
      "U": 53,
      "V": 54,
      "W": 55,
      "X": 56,
      "Y": 57,
      "Z": 58,
      "[": 59,
      "\\": 60,
      "]": 61,
      "_": 62,
      "a": 63,
      "b": 64,
      "c": 65,
      "d": 66,
      "e": 67,
      "f": 68,
      "g": 69,
      "h": 70,
      "i": 71,
      "j": 72,
      "k": 73,
      "l": 74,
      "m": 75,
      "n": 76,
      "o": 77,
      "p": 78,
      "q": 79,
      "r": 80,
      "s": 81,
      "t": 82,
      "u": 83,
      "v": 84,
      "w": 85,
      "x": 86,
      "y": 87,
      "z": 88,
      "{": 89,
      "}": 90,
      "¡": 91,
      "¥": 92,
      "§": 93,
      "¯": 94,
      "°": 95,
      "´": 96,
      "µ": 97,
      "¶": 98,
      "·": 99,
      "¸": 100,
      "¹": 101,
      "»": 102,
      "¼": 103,
      "½": 104,
      "¾": 105,
      "Ð": 106,
      "Ñ": 107,
      "ä": 108,
      "æ": 109,
      "è": 110,
      "ï": 111,
      "Ċ": 112,
      "č": 113,
      "Ġ": 114,
      "ģ": 115,
      "Ĥ": 116,
      "ĥ": 117,
      "ī": 118,
      "ĭ": 119,
      "Į": 120,
      "į": 121,
      "ĵ": 122,
      "ļ": 123,
      "ľ": 124,
      "Ł": 125,
      "\":": 126,
      "čĊ": 127,
      "\":\"": 128,
      ",\"": 129,
      "on": 130,
      "\",\"": 131,
      "en": 132,
      "at": 133,
      "er": 134,
      "{\"": 135,
      "ap": 136,
      "tr": 137,
      "ur": 138,
      "et": 139,
      "ion": 140,
      "ent": 141,
      "om": 142,
      "pl": 143,
      "os": 144,
      "ha": 145,
      "ic": 146,
      "com": 147,
      "\":{\"": 148,
      "ag": 149,
      "od": 150,
      "20": 151,
      "ation": 152,
      "ication": 153,
      "ea": 154,
      "son": 155,
      "\"}": 156,
      "Atr": 157,
      "osha": 158,
      "Atrosha": 159,
      "tp": 160,
      "//": 161,
      "://": 162,
      "json": 163,
      "appl": 164,
      "agt": 165,
      "application": 166,
      "ht": 167,
      "http": 168,
      "https": 169,
      "es": 170,
      "ST": 171,
      "pe": 172,
      "OST": 173,
      "POST": 174,
      "api": 175,
      "ar": 176,
      "an": 177,
      "ou": 178,
      "ers": 179,
      "pa": 180,
      "or": 181,
      "ed": 182,
      "get": 183,
      "us": 184,
      "ont": 185,
      "ce": 186,
      "ĠĠ": 187,
      "\"},\"": 188,
      "ontent": 189,
      "ch": 190,
      "tar": 191,
      "ure": 192,
      "26": 193,
      "met": 194,
      "ype": 195,
      "ig": 196,
      "ead": 197,
      "in": 198,
      "target": 199,
      "01": 200,
      "pay": 201,
      "head": 202,
      "ature": 203,
      "ec": 204,
      "ign": 205,
      "99": 206,
      "ID": 207,
      "gent": 208,
      "74": 209,
      "Agent": 210,
      "Content": 211,
      "Sign": 212,
      "Type": 213,
      "bod": 214,
      "hod": 215,
      "url": 216,
      "method": 217,
      "headers": 218,
      "Signature": 219,
      "body": 220,
      "ef": 221,
      "pt": 222,
      "am": 223,
      "65": 224,
      "34": 225,
      "ac": 226,
      "ad": 227,
      "73": 228,
      "str": 229,
      "61": 230,
      "end": 231,
      "}}": 232,
      "nt": 233,
      "ount": 234,
      "75": 235,
      "31": 236,
      "24": 237,
      "ans": 238,
      "69": 239,
      "ai": 240,
      "64": 241,
      "25": 242,
      "stri": 243,
      "84": 244,
      "70": 245,
      "stripe": 246,
      "is": 247,
      "th": 248,
      "79": 249,
      "21": 250,
      "35": 251,
      "29": 252,
      "04": 253,
      "68": 254,
      "71": 255,
      "ment": 256,
      "cc": 257,
      "al": 258,
      "78": 259,
      "39": 260,
      "Ġs": 261,
      "28": 262,
      "it": 263,
      "ff": 264,
      "00": 265,
      "bd": 266,
      "trans": 267,
      "ions": 268,
      "38": 269,
      "ee": 270,
      "ĠĠĠĠ": 271,
      "transf": 272,
      "af": 273,
      "ab": 274,
      "ri": 275,
      "30": 276,
      "54": 277,
      "bf": 278,
      "66": 279,
      "bc": 280,
      "cha": 281,
      "14": 282,
      "Ġa": 283,
      "dd": 284,
      "12": 285,
      "ver": 286,
      "94": 287,
      "ing": 288,
      "amount": 289,
      "76": 290,
      "ro": 291,
      "05": 292,
      "cri": 293,
      "bb": 294,
      "aa": 295,
      "op": 296,
      "compl": 297,
      "85": 298,
      "ren": 299,
      "te": 300,
      "cus": 301,
      "72": 302,
      "if": 303,
      "95": 304,
      "rg": 305,
      "charg": 306,
      "15": 307,
      "user": 308,
      "el": 309,
      "cy": 310,
      "Ġpay": 311,
      "gpt": 312,
      "enai": 313,
      "etions": 314,
      "chat": 315,
      "openai": 316,
      "completions": 317,
      "cd": 318,
      "sag": 319,
      "fd": 320,
      "be": 321,
      "re": 322,
      "bat": 323,
      "batch": 324,
      "88": 325,
      "cript": 326,
      "ost": 327,
      "36": 328,
      "ord": 329,
      "nd": 330,
      "44": 331,
      "Ġf": 332,
      "ba": 333,
      "91": 334,
      "cf": 335,
      "\":[": 336,
      "08": 337,
      "Cost": 338,
      "cur": 339,
      "rency": 340,
      "currency": 341,
      "transfers": 342,
      "ose": 343,
      "out": 344,
      "il": 345,
      "98": 346,
      "18": 347,
      "pose": 348,
      "urpose": 349,
      "33": 350,
      "charges": 351,
      "ref": 352,
      "55": 353,
      "st": 354,
      "ae": 355,
      "df": 356,
      "11": 357,
      "77": 358,
      "60": 359,
      "32": 360,
      "AI": 361,
      "Ġc": 362,
      "tom": 363,
      "de": 364,
      "cription": 365,
      "09": 366,
      "cb": 367,
      "ls": 368,
      "2026": 369,
      "lend": 370,
      "edCost": 371,
      "lendedCost": 372,
      "22": 373,
      "63": 374,
      "qu": 375,
      "ity": 376,
      "45": 377,
      "ex": 378,
      "ca": 379,
      "ud": 380,
      "id": 381,
      "eb": 382,
      "tomer": 383,
      "]}}": 384,
      "Ġth": 385,
      "\":[{\"": 386,
      "le": 387,
      "und": 388,
      "19": 389,
      "des": 390,
      "description": 391,
      "48": 392,
      "\"}}}": 393,
      "fc": 394,
      "62": 395,
      "ul": 396,
      "db": 397,
      "fb": 398,
      "im": 399,
      "10": 400,
      "dc": 401,
      "fa": 402,
      "da": 403,
      "fe": 404,
      "58": 405,
      "Ġan": 406,
      "90": 407,
      "verif": 408,
      "37": 409,
      "67": 410,
      "ĠĠĠĠĠĠĠĠ": 411,
      "50": 412,
      "ard": 413,
      "send": 414,
      "ata": 415,
      "Ġp": 416,
      "purpose": 417,
      "wis": 418,
      "verification": 419,
      "wise": 420,
      "customer": 421,
      "49": 422,
      "23": 423,
      "41": 424,
      "Ġw": 425,
      "mod": 426,
      "59": 427,
      "ant": 428,
      "refund": 429,
      "AIL": 430,
      "mes": 431,
      "messag": 432,
      "Ġd": 433,
      "27": 434,
      "You": 435,
      "bil": 436,
      "40": 437,
      "89": 438,
      "se": 439,
      "80": 440,
      "content": 441,
      "81": 442,
      "\"}]}}": 443,
      "51": 444,
      "role": 445,
      "model": 446,
      "messages": 447,
      "ve": 448,
      "az": 449,
      "Ġpayment": 450,
      "ip": 451,
      "Ġpayout": 452,
      "em": 453,
      "\"}}": 454,
      "pal": 455,
      "paypal": 456,
      "ote": 457,
      "Id": 458,
      "ub": 459,
      "Ġt": 460,
      "Usag": 461,
      "Usage": 462,
      "16": 463,
      "93": 464,
      "all": 465,
      "ple": 466,
      "ample": 467,
      "example": 468,
      "order": 469,
      "83": 470,
      "endor": 471,
      "azon": 472,
      "Ġha": 473,
      "Ġm": 474,
      "726": 475,
      "EM": 476,
      "aw": 477,
      "transfer": 478,
      "antity": 479,
      "43": 480,
      "46": 481,
      "1234": 482,
      "iz": 483,
      "06": 484,
      "96": 485,
      "56": 486,
      "13": 487,
      "86": 488,
      "53": 489,
      "act": 490,
      "SD": 491,
      "USD": 492,
      "03": 493,
      "type": 494,
      "42": 495,
      "est": 496,
      "92": 497,
      "Ġhave": 498,
      "acc": 499,
      "ear": 500,
      "ra": 501,
      "bills": 502,
      "refunds": 503,
      "amazon": 504,
      "aws": 505,
      "Qu": 506,
      "metad": 507,
      "metadata": 508,
      "97": 509,
      "47": 510,
      "Ġthe": 511,
      "07": 512,
      "02": 513,
      "82": 514,
      "17": 515,
      "57": 516,
      "ate": 517,
      "87": 518,
      "52": 519,
      "vendor": 520,
      "sender": 521,
      "EMAIL": 522,
      "BlendedCost": 523,
      "Un": 524,
      "blendedCost": 525,
      "east": 526,
      "UsageQu": 527,
      "amazonaws": 528,
      "UnblendedCost": 529,
      "UsageQuantity": 530,
      "bur": 531,
      "udget": 532,
      "uth": 533,
      "uthor": 534,
      "Bear": 535,
      "Ġsk": 536,
      "Bearer": 537,
      "ow": 538,
      "ue": 539,
      "Ġand": 540,
      "ift": 541,
      "ecip": 542,
      "det": 543,
      "ails": 544,
      "details": 545,
      "uthoriz": 546,
      "payment": 547,
      "account": 548,
      "ance": 549,
      "Ġin": 550,
      "Ġfor": 551,
      "tem": 552,
      "Tr": 553,
      "Trans": 554,
      "sub": 555,
      "9999": 556,
      "Ġr": 557,
      "gift": 558,
      "Ġre": 559,
      "ĠH": 560,
      "rea": 561,
      "reason": 562,
      "Acc": 563,
      "Purpose": 564,
      "ence": 565,
      "erence": 566,
      "targetAcc": 567,
      "reference": 568,
      "quote": 569,
      "transferPurpose": 570,
      "targetAccount": 571,
      "quoteId": 572,
      "Ġto": 573,
      "ime": 574,
      "uc": 575,
      "200": 576,
      "tric": 577,
      "ient": 578,
      "udgets": 579,
      "ĠA": 580,
      "Ġb": 581,
      "ut": 582,
      "206": 583,
      "ess": 584,
      "ore": 585,
      "payments": 586,
      "IG": 587,
      "accounts": 588,
      "oic": 589,
      "voic": 590,
      "Ġis": 591,
      "2061": 592,
      "un": 593,
      "recip": 594,
      "recipient": 595,
      "ain": 596,
      "card": 597,
      "ĠS": 598,
      "fra": 599,
      "Ig": 600,
      "roc": 601,
      "ld": 602,
      "Ġn": 603,
      "\":[\"": 604,
      "up": 605,
      "Th": 606,
      "ĠU": 607,
      "],\"": 608,
      "val": 609,
      "lo": 610,
      "ĠAI": 611,
      "cei": 612,
      "ail": 613,
      "recei": 614,
      "email": 615,
      "696": 616,
      "ĠĠĠĠĠĠĠĠĠĠĠĠĠĠĠĠ": 617,
      "Ġall": 618,
      "of": 619,
      "Ġcard": 620,
      "uct": 621,
      "nore": 622,
      "Ignore": 623,
      "burst": 624,
      "TH": 625,
      "pro": 626,
      "cad": 627,
      "oth": 628,
      "other": 629,
      "action": 630,
      "ys": 631,
      "payout": 632,
      "payouts": 633,
      "ser": 634,
      "are": 635,
      "ot": 636,
      "quest": 637,
      "jec": 638,
      "ON": 639,
      "gb": 640,
      "per": 641,
      "ss": 642,
      "Ġthis": 643,
      "ute": 644,
      "ecute": 645,
      "struct": 646,
      "yth": 647,
      "The": 648,
      "Ġex": 649,
      "ĠC": 650,
      "!\"},\"": 651,
      "note": 652,
      "header": 653,
      "item": 654,
      "subjec": 655,
      "value": 656,
      "receiver": 657,
      "items": 658,
      "subject": 659,
      "Get": 660,
      "GetCost": 661,
      "DAIL": 662,
      "DAILY": 663,
      "\"]}}": 664,
      "End": 665,
      "Gr": 666,
      "Me": 667,
      "Per": 668,
      "Star": 669,
      "Time": 670,
      "iod": 671,
      "arity": 672,
      "anul": 673,
      "trics": 674,
      "Granul": 675,
      "Metrics": 676,
      "Period": 677,
      "Start": 678,
      "TimePeriod": 679,
      "Granularity": 680,
      "LY": 681,
      "MON": 682,
      "THLY": 683,
      "MONTHLY": 684,
      "charge": 685,
      "budgets": 686,
      "med": 687,
      "ules": 688,
      "customerTrans": 689,
      "actionId": 690,
      "customerTransactionId": 691,
      "Ġ'": 692,
      "Authoriz": 693,
      "\"}],\"": 694,
      "temper": 695,
      "Authorization": 696,
      "temperature": 697,
      "Ġcon": 698,
      "invoic": 699,
      "chec": 700,
      "check": 701,
      "erver": 702,
      "otes": 703,
      "ello": 704,
      "Ġdo": 705,
      "ho": 706,
      "rocess": 707,
      "vi": 708,
      "ew": 709,
      "rag": 710,
      "ragment": 711,
      "Ġrules": 712,
      "Ġl": 713,
      ".\"}]}}": 714,
      "gbp": 715,
      "orders": 716,
      "Nor": 717,
      "mal": 718,
      "Normal": 719,
      "eur": 720,
      "jp": 721,
      "jpy": 722,
      "inr": 723,
      "aud": 724,
      "urcha": 725,
      "urchase": 726,
      "usd": 727,
      "IH": 728,
      "ist": 729,
      "Ġauthoriz": 730,
      "quested": 731,
      "igit": 732,
      "igital": 733,
      "123": 734,
      "DE": 735,
      "immed": 736,
      "immedi": 737,
      "by": 738,
      "Ġren": 739,
      "ewal": 740,
      "Ġrenewal": 741,
      "SB": 742,
      "Ġrefund": 743,
      "ling": 744,
      "imbur": 745,
      "billing": 746,
      "sement": 747,
      "Ġreimbur": 748,
      "Ġreimbursement": 749,
      "656": 750,
      "Ġfee": 751,
      "Fr": 752,
      "eca": 753,
      "616": 754,
      "ĠThe": 755,
      "7265": 756,
      "eting": 757,
      ".\",\"": 758,
      "ystem": 759,
      "true": 760,
      "Ġimmedi": 761,
      "Process": 762,
      "ten": 763,
      "ainten": 764,
      "aintenance": 765,
      "Ġy": 766,
      "script": 767,
      "unds": 768,
      "Ġcards": 769,
      "Ex": 770,
      "Ġmaintenance": 771,
      "Ġfunds": 772,
      "cm": 773,
      "EN": 774,
      "For": 775,
      "2074": 776,
      "Ġwho": 777,
      "Ġof": 778,
      "Ġdata": 779,
      "king": 780,
      "subscript": 781,
      "subscriptions": 782,
      "999999": 783,
      "to": 784,
      "ol": 785,
      "udul": 786,
      "fraudul": 787,
      "fraudulent": 788,
      "ace": 789,
      "requested": 790,
      "ustomer": 791,
      "paid": 792,
      "ĠYou": 793,
      "Ġtransfer": 794,
      "as": 795,
      "low": 796,
      "du": 797,
      "plic": 798,
      "duplic": 799,
      "duplicate": 800,
      "Ġpre": 801,
      "atel": 802,
      "ately": 803,
      "oy": 804,
      "ploy": 805,
      "ployee": 806,
      "ssist": 807,
      "ssistant": 808,
      "Ġ$": 809,
      "756": 810,
      "Ġun": 811,
      "frastruct": 812,
      "frastructure": 813,
      "fil": 814,
      "ything": 815,
      "mar": 816,
      "Ġpurchase": 817,
      "Ġh": 818,
      "Ġorder": 819,
      "our": 820,
      "ZW": 821,
      "CB": 822,
      "742": 823,
      "pan": 824,
      "hl": 825,
      "digital": 826,
      "Bur": 827,
      "Count": 828,
      "fragment": 829,
      "Burst": 830,
      "Ġauthorize": 831,
      "Wh": 832,
      "What": 833,
      "ET": 834,
      "ZX": 835,
      "7374": 836,
      "ĠUR": 837,
      ".\"}],\"": 838,
      "204": 839,
      "Ġimmediately": 840,
      "pend": 841,
      "Ġbo": 842,
      "254": 843,
      "ĠO": 844,
      "ine": 845,
      "Ġsub": 846,
      "ĠD": 847,
      "invoices": 848,
      "IGF": 849,
      "Ġconf": 850,
      "checkout": 851,
      "Ġare": 852,
      "844": 853,
      "100": 854,
      "Ġserver": 855,
      "Ġme": 856,
      "20616": 857,
      "YW": 858,
      "vers": 859,
      "ite": 860,
      "User": 861,
      "ĠHi": 862,
      "ĠHello": 863,
      "ĠAssistant": 864,
      "ĠUser": 865,
      "6572": 866,
      "aW": 867,
      "appro": 868,
      "Decip": 869,
      "her": 870,
      "Ġexecute": 871,
      "Decipher": 872,
      "Ġscript": 873,
      "On": 874,
      "Ġup": 875,
      "ere": 876,
      "ould": 877,
      "aid": 878,
      "Ġsaid": 879,
      "Ġcould": 880,
      "Ġthere": 881,
      "Ġanything": 882,
      "Ġwas": 883,
      "Ġtime": 884,
      "Once": 885,
      "Ġupon": 886,
      "allet": 887,
      "EX": 888,
      "ĠHEX": 889,
      "sh": 890,
      "qt": 891,
      "min": 892,
      "admin": 893,
      "CO": 894,
      "ĠEN": 895,
      "DED": 896,
      "Execute": 897,
      "ĠURL": 898,
      "CODED": 899,
      "ĠENCODED": 900,
      "Ġbatch": 901,
      "7320": 902,
      "gd": 903,
      "ety": 904,
      "afety": 905,
      "329": 906,
      "169": 907,
      "eed": 908,
      "estric": 909,
      "estrict": 910,
      "rom": 911,
      "BT": 912,
      "ous": 913,
      "vious": 914,
      "anc": 915,
      "GetCostFor": 916,
      "ecast": 917,
      "GetCostForecast": 918,
      "its": 919,
      "ill": 920,
      "Ġwill": 921,
      "Ġ<": 922,
      "Budgets": 923,
      "Des": 924,
      "cribe": 925,
      "Describe": 926,
      "DescribeBudgets": 927,
      "And": 928,
      "GetCostAnd": 929,
      "GetCostAndUsage": 930,
      "ay": 931,
      ".'": 932,
      "Budget": 933,
      "Cre": 934,
      "ateBudget": 935,
      "CreateBudget": 936,
      "ies": 937,
      "pri": 938,
      "Ġyour": 939,
      "ĠI": 940,
      "oin": 941,
      "ride": 942,
      "verride": 943,
      "EO": 944,
      "706": 945,
      "test": 946,
      "ally": 947,
      "Ġgift": 948,
      "Jn": 949,
      "zF": 950,
      "Ġset": 951,
      "Ġspend": 952,
      "732": 953,
      "796": 954,
      "files": 955,
      "Ġch": 956,
      "000": 957,
      "Ġ>": 958,
      "765": 959,
      "BTC": 960,
      "6865": 961,
      "tle": 962,
      "2073": 963,
      "pass": 964,
      "cH": 965,
      "ust": 966,
      "Ġem": 967,
      "Ġappro": 968,
      "eys": 969,
      "keys": 970,
      "666": 971,
      "Ġby": 972,
      "ĠCEO": 973,
      "tput": 974,
      "792": 975,
      "Ġsafety": 976,
      "jd": 977,
      "Customer": 978,
      "Ġwi": 979,
      "ame": 980,
      "DA": 981,
      "lanc": 982,
      "eelanc": 983,
      "Freelanc": 984,
      "Freelancer": 985,
      "Ġsec": 986,
      "Sof": 987,
      "tw": 988,
      "ense": 989,
      "icense": 990,
      "Ġlicense": 991,
      "Softw": 992,
      "Software": 993,
      "An": 994,
      "nu": 995,
      "tract": 996,
      "Ġcontract": 997,
      "Annu": 998,
      "Annual": 999,
      "7420": 1000,
      "Ġcheck": 1001,
      "erson": 1002,
      "Ġperson": 1003,
      "cap": 1004,
      "tur": 1005,
      "captur": 1006,
      "captures": 1007,
      "invoicing": 1008,
      "736": 1009,
      "Tra": 1010,
      "oking": 1011,
      "vel": 1012,
      "Ġbooking": 1013,
      "Travel": 1014,
      "Dom": 1015,
      "Ġst": 1016,
      "Domain": 1017,
      "Cl": 1018,
      "Ġbilling": 1019,
      "oud": 1020,
      "Ġinfrastructure": 1021,
      "Cloud": 1022,
      "Ġprevious": 1023,
      "Mont": 1024,
      "scription": 1025,
      "aaS": 1026,
      "ĠSaaS": 1027,
      "hly": 1028,
      "Ġsubscription": 1029,
      "Monthly": 1030,
      "ER": 1031,
      "Ġnow": 1032,
      "Server": 1033,
      "osting": 1034,
      "Ġhosting": 1035,
      "Em": 1036,
      "Vendor": 1037,
      "Ġinvoic": 1038,
      "Ġsettle": 1039,
      "Employee": 1040,
      "Ġinvoice": 1041,
      "Ġsettlement": 1042,
      "How": 1043,
      "edis": 1044,
      "igure": 1045,
      "Ġredis": 1046,
      "Ġconfigure": 1047,
      "Con": 1048,
      "Off": 1049,
      "sul": 1050,
      "ting": 1051,
      "plies": 1052,
      "ice": 1053,
      "Ġsup": 1054,
      "Consul": 1055,
      "Office": 1056,
      "Ġsupplies": 1057,
      "Consulting": 1058,
      "Su": 1059,
      "mmar": 1060,
      "Ġfol": 1061,
      "ize": 1062,
      "Ġnotes": 1063,
      "lowing": 1064,
      "Ġmeeting": 1065,
      "Summar": 1066,
      "Ġfollowing": 1067,
      "Summarize": 1068,
      "Hello": 1069,
      "late": 1070,
      "orld": 1071,
      "ish": 1072,
      "Ġworld": 1073,
      "Translate": 1074,
      "ĠSpan": 1075,
      "ĠSpanish": 1076,
      "Ġas": 1077,
      "Gh": 1078,
      "?\"}],\"": 1079,
      "043": 1080,
      "gen": 1081,
      "Equ": 1082,
      "urement": 1083,
      "Ġproc": 1084,
      "ipment": 1085,
      "Equipment": 1086,
      "Ġprocurement": 1087,
      "Mar": 1088,
      "keting": 1089,
      "paign": 1090,
      "ampaign": 1091,
      "Ġcampaign": 1092,
      "Marketing": 1093,
      "Wr": 1094,
      "Ġstr": 1095,
      "Ġpyth": 1096,
      "Ġrevers": 1097,
      "Write": 1098,
      "Ġstring": 1099,
      "Ġpython": 1100,
      "Ġreverse": 1101,
      "System": 1102,
      "ilt": 1103,
      "tal": 1104,
      "ĠFr": 1105,
      "apital": 1106,
      "Ġcapital": 1107,
      "ĠFrance": 1108,
      "for": 1109,
      "7269": 1110,
      "646": 1111,
      "Ġ-": 1112,
      "bi": 1113,
      "686": 1114,
      "age": 1115,
      "ZSB": 1116,
      "Wd": 1117,
      "6374": 1118,
      "restrict": 1119,
      "414": 1120,
      "ĠR": 1121,
      "6564": 1122,
      "Ġif": 1123,
      "and": 1124,
      "ease": 1125,
      "etc": 1126,
      "border": 1127,
      "less": 1128,
      "borderless": 1129,
      "344": 1130,
      "'t": 1131,
      "Ġe": 1132,
      "Ġisn": 1133,
      "745": 1134,
      "793": 1135,
      "Ġen": 1136,
      "but": 1137,
      "700": 1138,
      "bef": 1139,
      "quotes": 1140,
      "xy": 1141,
      "Ġwe": 1142,
      "pr": 1143,
      "Ġkeys": 1144,
      "eaf": 1145,
      "bad": 1146,
      "Rl": 1147,
      "fer": 1148,
      "Transfer": 1149,
      "202": 1150,
      "245": 1151,
      "eab": 1152,
      "bdd": 1153,
      "746": 1154,
      "244": 1155,
      "profiles": 1156,
      "Ġlim": 1157,
      "250": 1158,
      "bed": 1159,
      "cyB": 1160,
      "368": 1161,
      "aad": 1162,
      "PU": 1163,
      "348": 1164,
      "bdf": 1165,
      "596": 1166,
      "743": 1167,
      ".%": 1168,
      "bdc": 1169,
      "afd": 1170,
      "bde": 1171,
      "bff": 1172,
      "384": 1173,
      "345": 1174,
      "215": 1175,
      "aff": 1176,
      "aed": 1177,
      "mV": 1178,
      "fed": 1179,
      "ced": 1180,
      "fef": 1181,
      "eef": 1182,
      "sb": 1183,
      "Ġadmin": 1184,
      "TA": 1185,
      "GV": 1186,
      "bdb": 1187,
      "652": 1188,
      "306": 1189,
      "bda": 1190,
      "dff": 1191,
      "eac": 1192,
      "bcf": 1193,
      "Ġinstruct": 1194,
      "3939": 1195,
      "371": 1196,
      "258": 1197,
      "535": 1198,
      "564": 1199,
      "341": 1200,
      "ecf": 1201,
      "248": 1202,
      "249": 1203,
      "restricted": 1204,
      "kV": 1205,
      "335": 1206,
      "cdd": 1207,
      "urity": 1208,
      "fdd": 1209,
      "Ġcompl": 1210,
      "ct": 1211,
      "RID": 1212,
      "VER": 1213,
      "YST": 1214,
      "RIDE": 1215,
      "VERRIDE": 1216,
      "YSTEM": 1217,
      "fad": 1218,
      "754": 1219,
      "676": 1220,
      "794": 1221,
      "214": 1222,
      "154": 1223,
      "bbf": 1224,
      "744": 1225,
      "eaa": 1226,
      "Spl": 1227,
      "Ġfragment": 1228,
      "Split": 1229,
      "044": 1230,
      "326": 1231,
      "int": 1232,
      "bcc": 1233,
      "284": 1234,
      "Test": 1235,
      "Ġcharges": 1236,
      "Testing": 1237,
      "ebf": 1238,
      "aef": 1239,
      "hb": 1240,
      "run": 1241,
      "}}}": 1242,
      "quantity": 1243,
      "301": 1244,
      "20746865": 1245,
      "626": 1246,
      "784": 1247,
      "cff": 1248,
      "241": 1249,
      "bcd": 1250,
      "bcb": 1251,
      "ĠV": 1252,
      "399": 1253,
      "771": 1254,
      "PUT": 1255,
      "884": 1256,
      "icy": 1257,
      "ceb": 1258,
      "olicy": 1259,
      "acd": 1260,
      "abf": 1261,
      "YX": 1262,
      "049": 1263,
      "612": 1264,
      "ping": 1265,
      "trac": 1266,
      "}}}}": 1267,
      "ipping": 1268,
      "shipping": 1269,
      "qty": 1270,
      "tracking": 1271,
      "aG": 1272,
      "785": 1273,
      "12345": 1274,
      "364": 1275,
      "\"],\"": 1276,
      "xt": 1277,
      "text": 1278,
      "the": 1279,
      "deb": 1280,
      "764": 1281,
      "240": 1282,
      "331": 1283,
      "208": 1284,
      "ecd": 1285,
      "340": 1286,
      "285": 1287,
      "041": 1288,
      "ĠIgnore": 1289,
      "cef": 1290,
      "LET": 1291,
      "DELET": 1292,
      "DELETE": 1293,
      "acf": 1294,
      "AL": 1295,
      "GET": 1296,
      "eae": 1297,
      "dcc": 1298,
      "349": 1299,
      "cbf": 1300,
      "205": 1301,
      "Mic": 1302,
      "394": 1303,
      "Micro": 1304,
      "def": 1305,
      "Di": 1306,
      "stribut": 1307,
      "unk": 1308,
      "Ġchunk": 1309,
      "Distribut": 1310,
      "Distributed": 1311,
      "704": 1312,
      "788": 1313,
      "194": 1314,
      "218": 1315,
      "231": 1316,
      "255": 1317,
      "701": 1318,
      "acb": 1319,
      "dad": 1320,
      "ecb": 1321,
      "748": 1322,
      "298": 1323,
      "271": 1324,
      "abb": 1325,
      "cfd": 1326,
      "500": 1327,
      "299": 1328,
      "749": 1329,
      "210": 1330,
      "708": 1331,
      "738": 1332,
      "235": 1333,
      "799": 1334,
      "294": 1335,
      "bba": 1336,
      "795": 1337,
      "114": 1338,
      "abe": 1339,
      "288": 1340,
      "ded": 1341,
      "dbf": 1342,
      "afe": 1343,
      "afb": 1344,
      "226": 1345,
      "bca": 1346,
      "246": 1347,
      "cee": 1348,
      "289": 1349,
      "375": 1350,
      "259": 1351,
      "dfd": 1352,
      "afc": 1353,
      "209": 1354,
      "cec": 1355,
      "219": 1356,
      "346": 1357,
      "761": 1358,
      "741": 1359,
      "705": 1360,
      "abc": 1361,
      "781": 1362,
      "fcc": 1363,
      "308": 1364,
      "eeb": 1365,
      "238": 1366,
      "lh": 1367,
      "211": 1368,
      "281": 1369,
      "aca": 1370,
      "740": 1371,
      "789": 1372,
      "494": 1373,
      "365": 1374,
      "mode": 1375,
      "fcd": 1376,
      "aba": 1377,
      "361": 1378,
      "280": 1379,
      "201": 1380,
      "295": 1381,
      "735": 1382,
      "398": 1383,
      "290": 1384,
      "709": 1385,
      "694": 1386,
      "775": 1387,
      "251": 1388,
      "798": 1389,
      "Qg": 1390,
      "bae": 1391,
      "fbf": 1392,
      "338": 1393,
      "275": 1394,
      "395": 1395,
      "bbe": 1396,
      "391": 1397,
      "bbb": 1398,
      "beb": 1399,
      "ĠĠĠĠĠĠĠĠĠĠĠĠĠĠĠĠĠĠĠĠĠĠĠĠĠĠĠĠĠĠĠĠ": 1400,
      "768": 1401,
      "aae": 1402,
      "dcd": 1403,
      "Ġ5": 1404,
      "users": 1405,
      "454": 1406,
      "739": 1407,
      "304": 1408,
      "309": 1409,
      "afa": 1410,
      "291": 1411,
      "790": 1412,
      "ecc": 1413,
      "305": 1414,
      "aaa": 1415,
      "This": 1416,
      "731": 1417,
      "791": 1418,
      "644": 1419,
      "TI": 1420,
      "390": 1421,
      "360": 1422,
      "354": 1423,
      "dcf": 1424,
      "264": 1425,
      "714": 1426,
      "216": 1427,
      "848": 1428,
      "730": 1429,
      "314": 1430,
      "7595": 1431,
      "695": 1432,
      "648": 1433,
      "698": 1434,
      "318": 1435,
      "101": 1436,
      "Li": 1437,
      "302": 1438,
      "212": 1439,
      "914": 1440,
      "286": 1441,
      "715": 1442,
      "300": 1443,
      "780": 1444,
      "eee": 1445,
      "760": 1446,
      "385": 1447,
      "kgd": 1448,
      "954": 1449,
      "654": 1450,
      "048": 1451,
      "699": 1452,
      "fcf": 1453,
      "653": 1454,
      "342": 1455,
      "614": 1456,
      "315": 1457,
      "840": 1458,
      "242": 1459,
      "6634": 1460,
      "310": 1461,
      "2493": 1462,
      "cHB": 1463,
      "388": 1464,
      "199": 1465,
      "SYSTEM": 1466,
      "319": 1467,
      "601": 1468,
      "Ro": 1469,
      "758": 1470,
      "688": 1471,
      "Ġdis": 1472,
      "135": 1473,
      ".'\"}]}}": 1474,
      "Ġlimits": 1475,
      "718": 1476,
      "845": 1477,
      "247": 1478,
      "kuc": 1479,
      "ĠAl": 1480,
      "kucoin": 1481,
      "Bu": 1482,
      "isa": 1483,
      "ĠCustomer": 1484,
      "Ġprepaid": 1485,
      "ĠOverride": 1486,
      "ĠVisa": 1487,
      "Buy": 1488,
      "265": 1489,
      "396": 1490,
      "045": 1491,
      "Ġaccount": 1492,
      "296": 1493,
      "2070": 1494,
      "645": 1495,
      "aeb": 1496,
      "256": 1497,
      "618": 1498,
      "Pre": 1499,
      "ward": 1500,
      "Ġx": 1501,
      "Ġreward": 1502,
      "Ġemployee": 1503,
      "Prepaid": 1504,
      "Ġrewards": 1505,
      "Ġfrom": 1506,
      "Rout": 1507,
      "Routine": 1508,
      "185": 1509,
      "243": 1510,
      "149": 1511,
      "ĠOVERRIDE": 1512,
      "040": 1513,
      "380": 1514,
      "FZ": 1515,
      "Gjd": 1516,
      "Hu": 1517,
      "JJn": 1518,
      "Lt": 1519,
      "Zc": 1520,
      "bg": 1521,
      "cp": 1522,
      "ey": 1523,
      "jq": 1524,
      "kt": 1525,
      "kLt": 1526,
      "wV": 1527,
      "FZbg": 1528,
      "GjdwV": 1529,
      "HuJJn": 1530,
      "cpjq": 1531,
      "eyHuJJn": 1532,
      "ktZc": 1533,
      "kLtktZc": 1534,
      "FZbgi": 1535,
      "eyHuJJnkLtktZc": 1536,
      "658": 1537,
      "Purchase": 1538,
      "mazon": 1539,
      "ĠAmazon": 1540,
      "343": 1541,
      "415": 1542,
      "381": 1543,
      "268": 1544,
      "640": 1545,
      "389": 1546,
      "Ġunrestricted": 1547,
      "lv": 1548,
      "690": 1549,
      "615": 1550,
      "710": 1551,
      "Ġsecurity": 1552,
      "Ġma": 1553,
      "7574": 1554,
      "786": 1555,
      "655": 1556,
      "Ġauthorized": 1557,
      "Ġpersonally": 1558,
      "311": 1559,
      "coin": 1560,
      "transact": 1561,
      "base": 1562,
      "mary": 1563,
      "primary": 1564,
      "coinbase": 1565,
      "transactions": 1566,
      "Ur": 1567,
      "vis": 1568,
      "ĠBTC": 1569,
      "rovis": 1570,
      "quid": 1571,
      "Ġprovis": 1572,
      "Liquid": 1573,
      "Urgent": 1574,
      "Ġprovision": 1575,
      "Liquidity": 1576,
      "358": 1577,
      "685": 1578,
      "Cq": 1579,
      "Dd": 1580,
      "Fz": 1581,
      "GZ": 1582,
      "KkV": 1583,
      "Qw": 1584,
      "hsh": 1585,
      "rhsh": 1586,
      "sW": 1587,
      "wq": 1588,
      "wz": 1589,
      "zFFz": 1590,
      "Ġwith": 1591,
      "Cqrhsh": 1592,
      "DdzFFz": 1593,
      "GZQw": 1594,
      "KkVb": 1595,
      "wzKkVb": 1596,
      "Cqrhshwq": 1597,
      "DdzFFzCqrhshwq": 1598,
      "733": 1599,
      "750": 1600,
      "gYW": 1601,
      "260": 1602,
      "347": 1603,
      "Au": 1604,
      "ated": 1605,
      "Ġaud": 1606,
      "tomated": 1607,
      "ext": 1608,
      "Automated": 1609,
      "Ġaudit": 1610,
      "901": 1611,
      "797": 1612,
      "355": 1613,
      "755": 1614,
      "650": 1615,
      "fj": 1616,
      "gj": 1617,
      "hx": 1618,
      "kk": 1619,
      "qxy": 1620,
      "rf": 1621,
      "rs": 1622,
      "wlh": 1623,
      "ygj": 1624,
      "yrf": 1625,
      "zq": 1626,
      "qtzq": 1627,
      "kgdygj": 1628,
      "fjhx": 1629,
      "kkfjhx": 1630,
      "rsqtzq": 1631,
      "kgdygjrsqtzq": 1632,
      "195": 1633,
      "In": 1634,
      "nc": 1635,
      "ync": 1636,
      "Ġsync": 1637,
      "Infrastructure": 1638,
      "bin": 1639,
      "adf": 1640,
      "binance": 1641,
      "05329": 1642,
      "Wallet": 1643,
      "ry": 1644,
      "pto": 1645,
      "Ġcry": 1646,
      "Ġtop": 1647,
      "Ġcrypto": 1648,
      "Mo": 1649,
      "old": 1650,
      "orage": 1651,
      "Ġcold": 1652,
      "Ġstorage": 1653,
      "Move": 1654,
      "719": 1655,
      "660": 1656,
      "Ġinstructions": 1657,
      "841": 1658,
      "Bc": 1659,
      "Cc": 1660,
      "abd": 1661,
      "bD": 1662,
      "0532925": 1663,
      "Gift": 1664,
      "Ġ#": 1665,
      "759": 1666,
      "269": 1667,
      "849": 1668,
      "Data": 1669,
      "iance": 1670,
      "por": 1671,
      "Ġexpor": 1672,
      "Ġcompliance": 1673,
      "Ġexport": 1674,
      "649": 1675,
      "Bul": 1676,
      "Ġdigital": 1677,
      "Ġunits": 1678,
      "Bulk": 1679,
      "cbd": 1680,
      "GJ": 1681,
      "HGh": 1682,
      "LN": 1683,
      "PGJ": 1684,
      "RJn": 1685,
      "TN": 1686,
      "Tv": 1687,
      "ULN": 1688,
      "Vf": 1689,
      "Yq": 1690,
      "bbd": 1691,
      "ebd": 1692,
      "ePGJ": 1693,
      "azWd": 1694,
      "zFVf": 1695,
      "cHBazWd": 1696,
      "HGhRJn": 1697,
      "ULNzFVf": 1698,
      "YqTv": 1699,
      "ePGJULNzFVf": 1700,
      "cHBazWdHGhRJn": 1701,
      "ePGJULNzFVfA": 1702,
      "Add": 1703,
      "Or": 1704,
      "der": 1705,
      "ken": 1706,
      "kra": 1707,
      "vate": 1708,
      "private": 1709,
      "AddOr": 1710,
      "kraken": 1711,
      "AddOrder": 1712,
      "edd": 1713,
      "213": 1714,
      "253": 1715,
      "282": 1716,
      "691": 1717,
      "711": 1718,
      "641": 1719,
      "689": 1720,
      "751": 1721,
      "nal": 1722,
      "ernal": 1723,
      "hu": 1724,
      "obi": 1725,
      "place": 1726,
      "huobi": 1727,
      "203": 1728,
      "386": 1729,
      "659": 1730,
      "ffc": 1731,
      "eff": 1732,
      "619": 1733,
      "747": 1734,
      "bec": 1735,
      "dab": 1736,
      "edf": 1737,
      "680": 1738,
      "ebc": 1739,
      "bfa": 1740,
      "257": 1741,
      "baf": 1742,
      "994": 1743,
      "receipt": 1744,
      "Ġ>\"}}": 1745,
      "Jl": 1746,
      "014": 1747,
      "283": 1748,
      "610": 1749,
      "bce": 1750,
      "cab": 1751,
      "dbd": 1752,
      "854": 1753,
      "aab": 1754,
      "bfe": 1755,
      "ied": 1756,
      "notes": 1757,
      "verified": 1758,
      "cac": 1759,
      "554": 1760,
      "cce": 1761,
      "105": 1762,
      "cbc": 1763,
      "IHN": 1764,
      "bea": 1765,
      "policy": 1766,
      "aec": 1767,
      "350": 1768,
      "fac": 1769,
      "393": 1770,
      "daf": 1771,
      "293": 1772,
      "dea": 1773,
      "ada": 1774,
      "703": 1775,
      "252": 1776,
      "485": 1777,
      "115": 1778,
      "cea": 1779,
      "046": 1780,
      "782": 1781,
      "292": 1782,
      "aac": 1783,
      "edb": 1784,
      "723": 1785,
      "XR": 1786,
      "217": 1787,
      "ede": 1788,
      "287": 1789,
      "==": 1790,
      "efd": 1791,
      "362": 1792,
      "266": 1793,
      "681": 1794,
      "642": 1795,
      "bfd": 1796,
      "392": 1797,
      "aaf": 1798,
      "359": 1799,
      "bfc": 1800,
      "594": 1801,
      "998": 1802,
      "307": 1803,
      "846": 1804,
      "352": 1805,
      "adb": 1806,
      "eec": 1807,
      "316": 1808,
      "fec": 1809,
      "fab": 1810,
      "ade": 1811,
      "aea": 1812,
      "efc": 1813,
      "add": 1814,
      "722": 1815,
      "fbb": 1816,
      "Ġmode": 1817,
      "351": 1818,
      "ffb": 1819,
      "edc": 1820,
      "eea": 1821,
      "override": 1822,
      "able": 1823,
      "message": 1824,
      "261": 1825,
      "dac": 1826,
      "094": 1827,
      "995": 1828,
      "707": 1829,
      "716": 1830,
      "763": 1831,
      "455": 1832,
      "fbd": 1833,
      "643": 1834,
      "207": 1835,
      "faf": 1836,
      "894": 1837,
      "188": 1838,
      "702": 1839,
      "bab": 1840,
      "adc": 1841,
      "ffd": 1842,
      "383": 1843,
      "783": 1844,
      "787": 1845,
      "bac": 1846,
      "fdf": 1847,
      "bbc": 1848,
      "pb": 1849,
      "eda": 1850,
      "367": 1851,
      "767": 1852,
      "cbb": 1853,
      "fea": 1854,
      "efa": 1855,
      "999": 1856,
      "6374696": 1857,
      "name": 1858,
      "611": 1859,
      "cdc": 1860,
      "762": 1861,
      "cmV": 1862,
      "efb": 1863,
      "303": 1864,
      "356": 1865,
      "fff": 1866,
      "651": 1867,
      "ccf": 1868,
      "727": 1869,
      "ccd": 1870,
      "363": 1871,
      "495": 1872,
      "Tel": 1873,
      "ck": 1874,
      "caa": 1875,
      "ius": 1876,
      "just": 1877,
      "vil": 1878,
      "play": 1879,
      "leplay": 1880,
      "genius": 1881,
      "Tell": 1882,
      "cked": 1883,
      "737": 1884,
      "bfb": 1885,
      "323": 1886,
      "caf": 1887,
      "397": 1888,
      "605": 1889,
      "297": 1890,
      "322": 1891,
      "fce": 1892,
      "405": 1893,
      "ece": 1894,
      "ccc": 1895,
      "baa": 1896,
      "018": 1897,
      "ddd": 1898,
      "fbc": 1899,
      "iff": 1900,
      "uilt": 1901,
      "erent": 1902,
      "compan": 1903,
      "Forget": 1904,
      "ifferent": 1905,
      "company": 1906,
      "ignore": 1907,
      "acting": 1908,
      "990": 1909,
      "hra": 1910,
      "phra": 1911,
      "ret": 1912,
      "efe": 1913,
      "cdf": 1914,
      "ster": 1915,
      "passphra": 1916,
      "passphrase": 1917,
      "cde": 1918,
      "ci": 1919,
      "313": 1920,
      "pect": 1921,
      "expect": 1922,
      "expected": 1923,
      "output": 1924,
      "ffa": 1925,
      "rompt": 1926,
      "dbc": 1927,
      "843": 1928,
      "cdb": 1929,
      "ffe": 1930,
      "333": 1931,
      "327": 1932,
      "054": 1933,
      "dec": 1934,
      "ZmV": 1935,
      "gs": 1936,
      "ete": 1937,
      "cca": 1938,
      "ccb": 1939,
      "elete": 1940,
      "logs": 1941,
      "ddc": 1942,
      "PI": 1943,
      "daa": 1944,
      "iab": 1945,
      "les": 1946,
      "ron": 1947,
      "utput": 1948,
      "var": 1949,
      "viron": 1950,
      "iables": 1951,
      "variables": 1952,
      "vironment": 1953,
      "cfa": 1954,
      "cfc": 1955,
      "382": 1956,
      "fcb": 1957,
      "514": 1958,
      "dce": 1959,
      "dow": 1960,
      "sha": 1961,
      "esear": 1962,
      "shadow": 1963,
      "esearch": 1964,
      "fde": 1965,
      "905": 1966,
      "cfe": 1967,
      "312": 1968,
      "814": 1969,
      "815": 1970,
      "915": 1971,
      "332": 1972,
      "fdc": 1973,
      "015": 1974,
      "dde": 1975,
      "dfb": 1976,
      "feb": 1977,
      "aee": 1978,
      "Ġ2": 1979,
      "XRP": 1980,
      "dfc": 1981,
      "317": 1982,
      "dfe": 1983,
      "191": 1984,
      "bee": 1985,
      "387": 1986,
      "337": 1987,
      "ddf": 1988,
      "085": 1989,
      "173": 1990,
      "842": 1991,
      "IGFsb": 1992,
      "IGFsbCB": 1993,
      "dcb": 1994,
      "ebb": 1995,
      "eba": 1996,
      "697": 1997,
      "005": 1998,
      "491": 1999,
      "dfa": 2000,
      "fdb": 2001,
      "cba": 2002,
      "080": 2003,
      "dae": 2004,
      "895": 2005,
      "988": 2006,
      "042": 2007,
      "dca": 2008,
      "ddb": 2009,
      "6574": 2010,
      "cda": 2011,
      "cbe": 2012,
      "fbe": 2013,
      "ETH": 2014,
      "dbb": 2015,
      "991": 2016,
      "fee": 2017,
      "faa": 2018,
      "eist": 2019,
      "ovi": 2020,
      "rame": 2021,
      "plan": 2022,
      "plain": 2023,
      "ank": 2024,
      "Explain": 2025,
      "ovie": 2026,
      "dda": 2027,
      "609": 2028,
      "dee": 2029,
      "401": 2030,
      "ebe": 2031,
      "081": 2032,
      "996": 2033,
      "777": 2034,
      "357": 2035,
      "713": 2036,
      "198": 2037,
      "20696": 2038,
      "dbe": 2039,
      "fae": 2040,
      "662": 2041,
      "488": 2042,
      "dba": 2043,
      "dCB": 2044,
      "fda": 2045,
      "cfb": 2046,
      "712": 2047,
      "118": 2048,
      "fba": 2049,
      "ĠP": 2050,
      "OL": 2051,
      "SOL": 2052,
      "089": 2053,
      "885": 2054,
      "047": 2055,
      "663": 2056,
      "757": 2057,
      "263": 2058,
      "262": 2059,
      "847": 2060,
      "USDT": 2061,
      "647": 2062,
      "Ug": 2063,
      "223": 2064,
      "693": 2065,
      "985": 2066,
      "682": 2067,
      "008": 2068,
      "FO": 2069,
      "753": 2070,
      "692": 2071,
      "687": 2072,
      "086": 2073,
      "805": 2074,
      "090": 2075,
      "267": 2076,
      "ADA": 2077,
      "717": 2078,
      "524": 2079,
      "7373": 2080,
      "606": 2081,
      "019": 2082,
      "505": 2083,
      "fca": 2084,
      "498": 2085,
      "585": 2086,
      "613": 2087,
      "515": 2088,
      "cae": 2089,
      "010": 2090,
      "418": 2091,
      "095": 2092,
      "595": 2093,
      "6973": 2094,
      "lz": 2095,
      "011": 2096,
      "144": 2097,
      "752": 2098,
      "088": 2099,
      "683": 2100,
      "2054": 2101,
      "353": 2102,
      "222": 2103,
      "667": 2104,
      "227": 2105,
      "617": 2106,
      "891": 2107,
      "009": 2108,
      "588": 2109,
      "324": 2110,
      "411": 2111,
      "016": 2112,
      "nN": 2113,
      "Ghl": 2114,
      "cml": 2115,
      "145": 2116,
      "106": 2117,
      "321": 2118,
      "190": 2119,
      "374": 2120,
      "334": 2121,
      "Lg": 2122,
      "xl": 2123,
      "72616": 2124,
      "ved": 2125,
      "Ġquest": 2126,
      "ergen": 2127,
      "ontact": 2128,
      "elay": 2129,
      "Ġdelay": 2130,
      "Ġnot": 2131,
      "ĠContact": 2132,
      "Ġboard": 2133,
      "ĠDo": 2134,
      "Ġemergen": 2135,
      "Ġapproved": 2136,
      "Ġquestions": 2137,
      "Ġemergency": 2138,
      "140": 2139,
      "544": 2140,
      "602": 2141,
      "189": 2142,
      "434": 2143,
      "165": 2144,
      "127": 2145,
      "234": 2146,
      "548": 2147,
      "Ġoverride": 2148,
      "Ġmessage": 2149,
      "Ġfilt": 2150,
      "180": 2151,
      "Ġnext": 2152,
      "Ġdisable": 2153,
      "Ġfilters": 2154,
      "273": 2155,
      "110": 2156,
      "IP": 2157,
      "VIP": 2158,
      "bally": 2159,
      "ir": 2160,
      "lient": 2161,
      "read": 2162,
      "Ġver": 2163,
      "Ġclient": 2164,
      "Ġrequested": 2165,
      "ĠCFO": 2166,
      "Ġimmediate": 2167,
      "Ġconfir": 2168,
      "Ġwire": 2169,
      "ĠAlread": 2170,
      "Ġverbally": 2171,
      "Ġconfirmed": 2172,
      "ĠAlready": 2173,
      "3030": 2174,
      "ZG": 2175,
      "325": 2176,
      "466": 2177,
      "124": 2178,
      "184": 2179,
      "Law": 2180,
      "cro": 2181,
      "oen": 2182,
      "poen": 2183,
      "Ġes": 2184,
      "cement": 2185,
      "elease": 2186,
      "Ġsubpoen": 2187,
      "forcement": 2188,
      "ĠRelease": 2189,
      "Ġenforcement": 2190,
      "crow": 2191,
      "Ġescrow": 2192,
      "Ġsubpoena": 2193,
      "122": 2194,
      "148": 2195,
      "119": 2196,
      "164": 2197,
      "134": 2198,
      "724": 2199,
      "545": 2200,
      "370": 2201,
      "006": 2202,
      "207265": 2203,
      "091": 2204,
      "CR": 2205,
      "CAL": 2206,
      "ITI": 2207,
      "inut": 2208,
      "Ġsue": 2209,
      "Ġprocess": 2210,
      "Ġminut": 2211,
      "CRITI": 2212,
      "Ġprocessed": 2213,
      "Ġminutes": 2214,
      "CRITICAL": 2215,
      "499": 2216,
      "196": 2217,
      "155": 2218,
      "158": 2219,
      "ents": 2220,
      "intents": 2221,
      "150": 2222,
      "591": 2223,
      "146": 2224,
      "096": 2225,
      "Ġpassphrase": 2226,
      "oduct": 2227,
      "Ġwallet": 2228,
      "Ġsecret": 2229,
      "product": 2230,
      "Ġmaster": 2231,
      "products": 2232,
      "320": 2233,
      "328": 2234,
      "657": 2235,
      "108": 2236,
      "ĠAtrosha": 2237,
      "Ġjust": 2238,
      "Ġgenius": 2239,
      "ĠTell": 2240,
      "Ġhacked": 2241,
      "Ġevil": 2242,
      "custom": 2243,
      "ĠSystem": 2244,
      "customers": 2245,
      "898": 2246,
      "159": 2247,
      "Re": 2248,
      "gul": 2249,
      "kip": 2250,
      "line": 2251,
      "Ġor": 2252,
      "Ġho": 2253,
      "ator": 2254,
      "urs": 2255,
      "eadline": 2256,
      "Ġface": 2257,
      "Ġflow": 2258,
      "Ġfine": 2259,
      "Ġdeadline": 2260,
      "ĠSkip": 2261,
      "Ġapproval": 2262,
      "Regul": 2263,
      "Ġhours": 2264,
      "atory": 2265,
      "Regulatory": 2266,
      "If": 2267,
      "hut": 2268,
      "Ġbe": 2269,
      "Ġpaid": 2270,
      "ervers": 2271,
      "Ġshut": 2272,
      "Ġservers": 2273,
      "Ġdow": 2274,
      "Ġlose": 2275,
      "Ġdown": 2276,
      "734": 2277,
      "bal": 2278,
      "Ġlogs": 2279,
      "ĠDelete": 2280,
      "balance": 2281,
      "'s": 2282,
      "dite": 2283,
      "lease": 2284,
      "ying": 2285,
      "Ġbills": 2286,
      "ical": 2287,
      "pedite": 2288,
      "edical": 2289,
      "ild": 2290,
      "Ġdying": 2291,
      "Ġmedical": 2292,
      "Ġexpedite": 2293,
      "Ġchild": 2294,
      "Ġchecks": 2295,
      "Ġstand": 2296,
      "Ġwithout": 2297,
      "ĠPlease": 2298,
      "Ġstandard": 2299,
      "138": 2300,
      "Ġcompany": 2301,
      "Ġdifferent": 2302,
      "Ġbuilt": 2303,
      "Ġpersona": 2304,
      "012": 2305,
      "992": 2306,
      "ZXJ": 2307,
      "378": 2308,
      "174": 2309,
      "Ġvariables": 2310,
      "ĠAPI": 2311,
      "Ġyou": 2312,
      "Ġenvironment": 2313,
      "598": 2314,
      "186": 2315,
      "Ġunexpected": 2316,
      "948": 2317,
      "111": 2318,
      "ices": 2319,
      "prices": 2320,
      "373": 2321,
      "274": 2322,
      "607": 2323,
      "224": 2324,
      "125": 2325,
      "WW": 2326,
      "221": 2327,
      "420": 2328,
      "623": 2329,
      "770": 2330,
      "AN": 2331,
      "Ġignore": 2332,
      "Ġacting": 2333,
      "Ġmust": 2334,
      "Ġrestrict": 2335,
      "ĠDAN": 2336,
      "Ġrestrictions": 2337,
      "131": 2338,
      "400": 2339,
      "175": 2340,
      "058": 2341,
      "121": 2342,
      "Ġ/": 2343,
      "859": 2344,
      "Ġcontent": 2345,
      "Ġmy": 2346,
      "Ġresearch": 2347,
      "Ġneed": 2348,
      "128": 2349,
      "490": 2350,
      "sess": 2351,
      "sessions": 2352,
      "126": 2353,
      "940": 2354,
      "><": 2355,
      "Ġoutput": 2356,
      "Ġsystem": 2357,
      "Ġprompt": 2358,
      "945": 2359,
      "421": 2360,
      "339": 2361,
      "171": 2362,
      "104": 2363,
      "161": 2364,
      "404": 2365,
      "225": 2366,
      "424": 2367,
      "109": 2368,
      "997": 2369,
      "993": 2370,
      "168": 2371,
      "013": 2372,
      "464": 2373,
      "220": 2374,
      "426": 2375,
      "624": 2376,
      "098": 2377,
      "HJ": 2378,
      "ĠĠĠĠĠĠĠĠĠĠĠĠ": 2379,
      "627": 2380,
      "017": 2381,
      "116": 2382,
      "549": 2383,
      "484": 2384,
      "Ġ\\": 2385,
      "858": 2386,
      "229": 2387,
      "540": 2388,
      "474": 2389,
      "Rlb": 2390,
      "Mg": 2391,
      "120": 2392,
      "170": 2393,
      "107": 2394,
      "Ġit": 2395,
      "Ġplan": 2396,
      "Ġframe": 2397,
      "Ġmovie": 2398,
      "Ġbut": 2399,
      "Ġbank": 2400,
      "Ġheist": 2401,
      "103": 2402,
      "949": 2403,
      "76696": 2404,
      "129": 2405,
      "449": 2406,
      "187": 2407,
      "416": 2408,
      "20596": 2409,
      "448": 2410,
      "139": 2411,
      "055": 2412,
      "239": 2413,
      "757320": 2414,
      "379": 2415,
      "465": 2416,
      "471": 2417,
      "546": 2418,
      "637": 2419,
      "369": 2420,
      "178": 2421,
      "278": 2422,
      "752061": 2423,
      "7520617265": 2424,
      "461": 2425,
      "600": 2426,
      "850": 2427,
      "634": 2428,
      "408": 2429,
      "958": 2430,
      "228": 2431,
      "Ġ49": 2432,
      "774": 2433,
      "684": 2434,
      "919": 2435,
      "824": 2436,
      "330": 2437,
      "102": 2438,
      "889": 2439,
      "160": 2440,
      "050": 2441,
      "769": 2442,
      "855": 2443,
      "419": 2444,
      "64206": 2445,
      "dW": 2446,
      "279": 2447,
      "475": 2448,
      "435": 2449,
      "478": 2450,
      "888": 2451,
      "664": 2452,
      "445": 2453,
      "604": 2454,
      "959": 2455,
      "425": 2456,
      "728": 2457,
      "955": 2458,
      "778": 2459,
      "431": 2460,
      "543": 2461,
      "440": 2462,
      "156": 2463,
      "270": 2464,
      "438": 2465,
      "697320": 2466,
      "729": 2467,
      "vb": 2468,
      "2064": 2469,
      "7572": 2470,
      "6861": 2471,
      "725": 2472,
      "059": 2473,
      "aX": 2474,
      "IHB": 2475,
      "74656": 2476,
      "910": 2477,
      "179": 2478,
      "918": 2479,
      "720": 2480,
      "479": 2481,
      "721": 2482,
      "620": 2483,
      "880": 2484,
      "181": 2485,
      "635": 2486,
      "631": 2487,
      "608": 2488,
      "409": 2489,
      "480": 2490,
      "429": 2491,
      "908": 2492,
      "151": 2493,
      "183": 2494,
      "674": 2495,
      "458": 2496,
      "141": 2497,
      "470": 2498,
      "439": 2499,
      "142": 2500,
      "779": 2501,
      "980": 2502,
      "989": 2503,
      "459": 2504,
      "444": 2505,
      "603": 2506,
      "864": 2507,
      "468": 2508,
      "679": 2509,
      "621": 2510,
      "143": 2511,
      "678": 2512,
      "639": 2513,
      "192": 2514,
      "130": 2515,
      "874": 2516,
      "584": 2517,
      "950": 2518,
      "971": 2519,
      "113": 2520,
      "944": 2521,
      "Ġ--": 2522,
      "804": 2523,
      "230": 2524,
      "147": 2525,
      "931": 2526,
      "628": 2527,
      "975": 2528,
      "924": 2529,
      "984": 2530,
      "450": 2531,
      "182": 2532,
      "669": 2533,
      "661": 2534,
      "093": 2535,
      "ZXN": 2536,
      "671": 2537,
      "934": 2538,
      "IGZ": 2539,
      "638": 2540,
      "899": 2541,
      "900": 2542,
      "871": 2543,
      "800": 2544,
      "921": 2545,
      "808": 2546,
      "625": 2547,
      "504": 2548,
      "673": 2549,
      "dX": 2550,
      "473": 2551,
      "920": 2552,
      "117": 2553,
      "629": 2554,
      "034": 2555,
      "574": 2556,
      "152": 2557,
      "092": 2558,
      "926": 2559,
      "iam": 2560,
      "man": 2561,
      "azure": 2562,
      "agement": 2563,
      "management": 2564,
      "Zl": 2565,
      "665": 2566,
      "469": 2567,
      "your": 2568,
      "097": 2569,
      "550": 2570,
      "670": 2571,
      "--": 2572,
      "wallet": 2573,
      "675": 2574,
      "428": 2575,
      "197": 2576,
      "cor": 2577,
      "internal": 2578,
      "corp": 2579,
      "964": 2580,
      "974": 2581,
      "525": 2582,
      "825": 2583,
      "0430": 2584,
      "668": 2585,
      "Wdub": 2586,
      "501": 2587,
      "su": 2588,
      "issu": 2589,
      "cards": 2590,
      "issuing": 2591,
      "004": 2592,
      "766572": 2593,
      "521": 2594,
      "965": 2595,
      "136": 2596,
      "773": 2597,
      "904": 2598,
      "834": 2599,
      "961": 2600,
      "193": 2601,
      "875": 2602,
      "nV": 2603,
      "20666": 2604,
      "534": 2605,
      "939": 2606,
      "821": 2607,
      "data": 2608,
      "lat": 2609,
      "meta": 2610,
      "latest": 2611,
      "851": 2612,
      "084": 2613,
      "Ym": 2614,
      "wd": 2615,
      ":///": 2616,
      "file": 2617,
      "passwd": 2618,
      "529": 2619,
      "430": 2620,
      "571": 2621,
      "941": 2622,
      "035": 2623,
      "542": 2624,
      "74206": 2625,
      "441": 2626,
      "366": 2627,
      "578": 2628,
      "938": 2629,
      "031": 2630,
      "051": 2631,
      "gbW": 2632,
      "508": 2633,
      "869": 2634,
      "969": 2635,
      "865": 2636,
      "561": 2637,
      "166": 2638,
      "835": 2639,
      "538": 2640,
      "831": 2641,
      "021": 2642,
      "590": 2643,
      "935": 2644,
      "868": 2645,
      "970": 2646,
      "20746865206": 2647,
      "025": 2648,
      "839": 2649,
      "7320616": 2650,
      "001": 2651,
      "276": 2652,
      "873": 2653,
      "ĠĠĠ": 2654,
      "946": 2655,
      "153": 2656,
      "820": 2657,
      "520": 2658,
      "599": 2659,
      "071": 2660,
      "968": 2661,
      "074": 2662,
      "928": 2663,
      "861": 2664,
      "890": 2665,
      "630": 2666,
      "973": 2667,
      "801": 2668,
      "133": 2669,
      "207468": 2670,
      "947": 2671,
      "929": 2672,
      "826": 2673,
      "978": 2674,
      "838": 2675,
      "176": 2676,
      "672": 2677,
      "511": 2678,
      "376": 2679,
      "579": 2680,
      "981": 2681,
      "336": 2682,
      "007": 2683,
      "157": 2684,
      "570": 2685,
      "575": 2686,
      "565": 2687,
      "886": 2688,
      "925": 2689,
      "528": 2690,
      "079": 2691,
      "ALL": 2692,
      "236": 2693,
      "6275": 2694,
      "526": 2695,
      "065": 2696,
      "024": 2697,
      "pbi": 2698,
      "pbiB": 2699,
      "489": 2700,
      "075": 2701,
      "026": 2702,
      "Ð°": 2703,
      "879": 2704,
      "7366": 2705,
      "6166": 2706,
      "951": 2707,
      "481": 2708,
      "029": 2709,
      "002": 2710,
      "064": 2711,
      "070": 2712,
      "547": 2713,
      "447": 2714,
      "approve": 2715,
      "531": 2716,
      "451": 2717,
      "456": 2718,
      "573": 2719,
      "028": 2720,
      "979": 2721,
      "569": 2722,
      "541": 2723,
      "911": 2724,
      "6578": 2725,
      "942": 2726,
      "177": 2727,
      "870": 2728,
      "410": 2729,
      "Output": 2730,
      "003": 2731,
      "943": 2732,
      "559": 2733,
      "442": 2734,
      "443": 2735,
      "986": 2736,
      "829": 2737,
      "7665": 2738,
      "020": 2739,
      "top": 2740,
      "ups": 2741,
      "topups": 2742,
      "518": 2743,
      "057": 2744,
      "856": 2745,
      "Roleplay": 2746,
      "038": 2747,
      "073": 2748,
      "881": 2749,
      "436": 2750,
      "828": 2751,
      "083": 2752,
      "472": 2753,
      "056": 2754,
      "099": 2755,
      "982": 2756,
      "883": 2757,
      "460": 2758,
      "082": 2759,
      "852": 2760,
      "061": 2761,
      "878": 2762,
      "586": 2763,
      "069": 2764,
      "078": 2765,
      "068": 2766,
      "818": 2767,
      "487": 2768,
      "476": 2769,
      "589": 2770,
      "492": 2771,
      "496": 2772,
      "857": 2773,
      "956": 2774,
      "Ak": 2775,
      "hZmV": 2776,
      "IHNhZmV": 2777,
      "ZXJz": 2778,
      "052": 2779,
      "372": 2780,
      "530": 2781,
      "FT": 2782,
      "Zlci": 2783,
      "406": 2784,
      "887": 2785,
      "486": 2786,
      "433": 2787,
      "446": 2788,
      "819": 2789,
      "462": 2790,
      "830": 2791,
      "987": 2792,
      "477": 2793,
      "053": 2794,
      "403": 2795,
      "539": 2796,
      "gWW": 2797,
      "yZSB": 2798,
      "IGFyZSB": 2799,
      "IGFyZSBub": 2800,
      "402": 2801,
      "811": 2802,
      "917": 2803,
      "163": 2804,
      "916": 2805,
      "953": 2806,
      "882": 2807,
      "6563": 2808,
      "453": 2809,
      "930": 2810,
      "039": 2811,
      "233": 2812,
      "162": 2813,
      "907": 2814,
      "now": 2815,
      "452": 2816,
      "cgYW": 2817,
      "792061": 2818,
      "6572736": 2819,
      "906": 2820,
      "112": 2821,
      "983": 2822,
      "spend": 2823,
      "eSB": 2824,
      "ku": 2825,
      "272": 2826,
      "960": 2827,
      "568": 2828,
      "776": 2829,
      "132": 2830,
      "207468652073": 2831,
      "860": 2832,
      "853": 2833,
      "726576696": 2834,
      "2070726576696": 2835,
      "EF": 2836,
      "2066": 2837,
      "20756": 2838,
      "957": 2839,
      "555": 2840,
      "580": 2841,
      "457": 2842,
      "7520617265206": 2843,
      "413": 2844,
      "483": 2845,
      "726520616": 2846,
      "463": 2847,
      "087": 2848,
      "20736166": 2849,
      "207361666574": 2850,
      "558": 2851,
      "sZX": 2852,
      "467": 2853,
      "pre": 2854,
      "previous": 2855,
      "407": 2856,
      "519": 2857,
      "Bw": 2858,
      "493": 2859,
      "63746564": 2860,
      "73747269": 2861,
      "ayB": 2862,
      "432": 2863,
      "497": 2864,
      "137": 2865,
      "gdGhl": 2866,
      "Vud": 2867,
      "JlIGFsbCB": 2868,
      "73666572": 2869,
      "482": 2870,
      "167": 2871,
      "913": 2872,
      "417": 2873,
      "yb": 2874,
      "422": 2875,
      "896": 2876,
      "423": 2877,
      "816": 2878,
      "510": 2879,
      "506": 2880,
      "person": 2881,
      "551": 2882,
      "797374": 2883,
      "806": 2884,
      "safety": 2885,
      "39393939": 2886,
      "797374656": 2887,
      "IF": 2888,
      "hc": 2889,
      "813": 2890,
      "560": 2891,
      "952": 2892,
      "IHRo": 2893,
      "976": 2894,
      "412": 2895,
      "556": 2896,
      "509": 2897,
      "sec": 2898,
      "this": 2899,
      "ZCB": 2900,
      "536": 2901,
      "582": 2902,
      "Vz": 2903,
      "207472616": 2904,
      "Vk": 2905,
      "876": 2906,
      "Zm": 2907,
      "757374": 2908,
      "20746": 2909,
      "030": 2910,
      "810": 2911,
      "377": 2912,
      "566": 2913,
      "581": 2914,
      "7669": 2915,
      "902": 2916,
      "587": 2917,
      "427": 2918,
      "hbm": 2919,
      "597": 2920,
      "Ġ49676": 2921,
      "237": 2922,
      "iB": 2923,
      "Vy": 2924,
      "437": 2925,
      "897": 2926,
      "172": 2927,
      "909": 2928,
      "592": 2929,
      "893": 2930,
      "3544": 2931,
      "516": 2932,
      "552": 2933,
      "Glv": 2934,
      "jdGlv": 2935,
      "807": 2936,
      "817": 2937,
      "836": 2938,
      "823": 2939,
      "7275": 2940,
      "802": 2941,
      "533": 2942,
      "903": 2943,
      "892": 2944,
      "CDA": 2945,
      "OW": 2946,
      "ALLOW": 2947,
      "CDATA": 2948,
      "936": 2949,
      "766": 2950,
      "933": 2951,
      "593": 2952,
      "eam": 2953,
      "uto": 2954,
      "ĠSWdub": 2955,
      "503": 2956,
      "557": 2957,
      "232": 2958,
      "060": 2959,
      "576": 2960,
      "502": 2961,
      "transaction": 2962,
      "966": 2963,
      "833": 2964,
      "513": 2965,
      "809": 2966,
      "866": 2967,
      "066": 2968,
      "812": 2969,
      "532": 2970,
      "7061": 2971,
      "863": 2972,
      "tb": 2973,
      "6579": 2974,
      "636": 2975,
      "277": 2976,
      "803": 2977,
      "877": 2978,
      "ial": 2979,
      "inanc": 2980,
      "idate": 2981,
      "507": 2982,
      "uthority": 2983,
      "validate": 2984,
      "load": 2985,
      "inancial": 2986,
      "0439": 2987,
      "6974": 2988,
      "822": 2989,
      "GEN": 2990,
      "gal": 2991,
      "ening": 2992,
      "atening": 2993,
      "reatening": 2994,
      "legal": 2995,
      "GENT": 2996,
      "937": 2997,
      "553": 2998,
      "076": 2999,
      "963": 3000,
      "583": 3001,
      "633": 3002,
      "2041": 3003,
      "2072": 3004,
      "512": 3005,
      "036": 3006,
      "563": 3007,
      "972": 3008,
      "7479": 3009,
      "572": 3010,
      "977": 3011,
      "gard": 3012,
      "regard": 3013,
      "xyz": 3014,
      "nNew": 3015,
      "062": 3016,
      "922": 3017,
      "033": 3018,
      "067": 3019,
      "517": 3020,
      "837": 3021,
      "ZWR": 3022,
      "523": 3023,
      "98765": 3024,
      "032": 3025,
      "aWx": 3026,
      "832": 3027,
      ".\"}}": 3028,
      "ĠProcess": 3029,
      "072": 3030,
      "027": 3031,
      "IGJ": 3032,
      "lvdX": 3033,
      "CTI": 3034,
      "ECTI": 3035,
      "IN": 3036,
      "JECTI": 3037,
      "ful": 3038,
      "gr": 3039,
      "ppro": 3040,
      "pful": 3041,
      "hts": 3042,
      "ights": 3043,
      "verything": 3044,
      "elpful": 3045,
      "INJECTI": 3046,
      "grant": 3047,
      "pprove": 3048,
      "INJECTION": 3049,
      "862": 3050,
      "ug": 3051,
      "debug": 3052,
      "622": 3053,
      "2061206": 3054,
      "oleplay": 3055,
      "ĠRoleplay": 3056,
      "0441": 3057,
      "522": 3058,
      "912": 3059,
      "BL": 3060,
      "OP": 3061,
      "ROP": 3062,
      "99999": 3063,
      "TABL": 3064,
      "TABLE": 3065,
      "022": 3066,
      "ĠForget": 3067,
      "206275": 3068,
      "0442": 3069,
      "jb": 3070,
      "vci": 3071,
      "ZWN": 3072,
      "IGZvci": 3073,
      "IGZvciB": 3074,
      "772": 3075,
      "537": 3076,
      "=\"}]}}": 3077,
      "70742": 3078,
      "999999999": 3079,
      "527": 3080,
      "xM": 3081,
      "yZXN": 3082,
      "023": 3083,
      "927": 3084,
      "567": 3085,
      "632": 3086,
      "Ymxl": 3087,
      "962": 3088,
      "867": 3089,
      "932": 3090,
      "61626": 3091,
      "IEF": 3092,
      "7420796": 3093,
      "923": 3094,
      "av": 3095,
      "rules": 3096,
      "uce": 3097,
      "Ġtr": 3098,
      "Ġest": 3099,
      "aduce": 3100,
      "Ġfav": 3101,
      "uta": 3102,
      "jecuta": 3103,
      "cmF": 3104,
      "Ġejecuta": 3105,
      "Ġtraduce": 3106,
      "Ġesto": 3107,
      "Ġfavor": 3108,
      "hh": 3109,
      "IHRoZSB": 3110,
      "757470": 3111,
      "ĠWhat": 3112,
      "ZmVy": 3113,
      "827": 3114,
      "657373": 3115,
      "Ghp": 3116,
      "967": 3117,
      "562": 3118,
      "872": 3119,
      "063": 3120,
      "IEN": 3121,
      "ja": 3122,
      "yaW": 3123,
      "7220746865206": 3124,
      "uZCB": 3125,
      "hw": 3126,
      "7574686": 3127,
      "207468697320": 3128,
      "pY": 3129,
      "Eg": 3130,
      "IGEg": 3131,
      "61636": 3132,
      "hcm": 3133,
      "aGF": 3134,
      "037": 3135,
      "IHR": 3136,
      "OiB": 3137,
      "66756": 3138,
      "577": 3139,
      "instruct": 3140,
      "2044": 3141,
      "hbmQg": 3142,
      "73747275": 3143,
      "737472756374696": 3144,
      "677": 3145,
      "XB": 3146,
      "cnV": 3147,
      "ĠOutput": 3148,
      "pbnN": 3149,
      "jdGlvb": 3150,
      "cnVjdGlvb": 3151,
      "3454": 3152,
      "gQ": 3153,
      "077": 3154,
      "HB": 3155,
      "Mu": 3156,
      "2072756": 3157,
      "6174656": 3158,
      "2524": 3159,
      "ĠExplain": 3160,
      "2061646": 3161,
      "cHQu": 3162,
      "Ð¹": 3163,
      "Ð»": 3164,
      "Ð¾": 3165,
      "Ñģ": 3166,
      "ÑĤ": 3167,
      "2024": 3168,
      "70726": 3169,
      "9444": 3170,
      "2431": 3171,
      "72697479": 3172,
      "Tk": 3173,
      "kIG": 3174,
      "![": 3175,
      "LL": 3176,
      "]]": 3177,
      "ĠALL": 3178,
      "></": 3179,
      "><![": 3180,
      "]]></": 3181,
      "Ġamount": 3182,
      "Ġtest": 3183,
      "Ġteam": 3184,
      "ĠAuto": 3185,
      "Ġtransaction": 3186,
      "Ġapprove": 3187,
      "Ġbypass": 3188,
      "Ġaction": 3189,
      "Ġlegal": 3190,
      "Ġthreatening": 3191,
      "Ġlimit": 3192,
      "2616": 3193,
      "Ġvalidate": 3194,
      "\":\"\\": 3195,
      "Ġauthority": 3196,
      "Ġpayload": 3197,
      "Ġfinancial": 3198,
      "2065": 3199,
      "50000": 3200,
      "ternal": 3201,
      "Ġsend": 3202,
      "Ġpolicy": 3203,
      "Ġexternal": 3204,
      "Ġinstruction": 3205,
      "Ġdisregard": 3206,
      "Ġtransfers": 3207,
      "Ġdebug": 3208,
      "rior": 3209,
      "Ġprior": 3210,
      "ĠAllow": 3211,
      "ĠTransfer": 3212,
      "Ġ98765": 3213,
      "6963": 3214,
      "Ġuser": 3215,
      "Ġgrant": 3216,
      "Ġrights": 3217,
      "Ġrequest": 3218,
      "Ġhelpful": 3219,
      "Ġcomplies": 3220,
      "ĠApprove": 3221,
      "Ġeverything": 3222,
      "!--": 3223,
      "Ġmax": 3224,
      "Ġ-->": 3225,
      "Gx": 3226,
      "MTA": 3227,
      "Qgd": 3228,
      "VGhl": 3229,
      "dGh": 3230,
      "eS": 3231,
      "gVGhl": 3232,
      "vcml": 3233,
      "wayB": 3234,
      "yBw": 3235,
      "cyAk": 3236,
      "ZWQgd": 3237,
      "hbGx": 3238,
      "JlIHNhZmV": 3239,
      "ZXJzb": 3240,
      "FTyBw": 3241,
      "cmFuc": 3242,
      "GhpcyAk": 3243,
      "IENFTyBw": 3244,
      "MTAwayB": 3245,
      "dGhvcml": 3246,
      "gVGhlIENFTyBw": 3247,
      "ZWQgdGhpcyAk": 3248,
      "gVGhlIENFTyBwZXJzb": 3249,
      "ZWQgdGhpcyAkMTAwayB": 3250,
      "uY": 3251,
      "ĠTABLE": 3252,
      "ĠDROP": 3253,
      "==\"}]}}": 3254,
      "Ġ%": 3255,
      "MDA": 3256,
      "61696": 3257,
      "72697": 3258,
      "MDAw": 3259,
      "30306": 3260,
      "gR": 3261,
      "MgaW": 3262,
      "56455": 3263,
      "yZ": 3264,
      "7265207361666574": 3265,
      "2043454": 3266,
      "68652043454": 3267,
      "6564207468697320": 3268,
      "RlOiB": 3269,
      "53595": 3270,
      "20706572736": 3271,
      "205468652043454": 3272,
      "7920617574686": 3273,
      "736665722": 3274,
      "243130306": 3275,
      "7265207361666574792": 3276,
      "6564207468697320243130306": 3277,
      "202435": 3278,
      "ydW": 3279,
      "ydWxl": 3280,
      "354454": 3281,
      "25249444": 3282,
      "5645525249444": 3283,
      "53595354454": 3284,
      "aXN": 3285,
      "security": 3286,
      "64653": 3287,
      "immediately": 3288,
      "unrestricted": 3289,
      "757320696": 3290,
      "Nvb": 3291,
      "NvbXB": 3292,
      "IHV": 3293,
      "697374": 3294,
      "hIH": 3295,
      "cyBhIH": 3296,
      "instructions": 3297,
      "IC": 3298,
      "Por": 3299,
      "726765": 3300,
      "YXJ": 3301,
      "/\",\"": 3302,
      "zYW": 3303,
      "dGV": 3304,
      "726573747269": 3305,
      "72657374726963746564": 3306,
      "Nw": 3307,
      "dHJ": 3308,
      "zdHJ": 3309,
      "7720616": 3310,
      "IGFz": 3311,
      "zdHJpY": 3312,
      "20726566756": 3313,
      "SU": 3314,
      "65732": 3315,
      "24100": 3316,
      "65726": 3317,
      "20616374696": 3318,
      "ZXIg": 3319,
      "YXN": 3320,
      "2074686520736563": 3321,
      "cyBhbmQg": 3322,
      "Ġ\",\"": 3323,
      "657220": 3324,
      "696174656": 3325,
      "6564696174656": 3326,
      "dis": 3327,
      "7665727269": 3328,
      "CEO": 3329,
      "authoriz": 3330,
      "wcmV": 3331,
      "cyBpbnN": 3332,
      "aGUg": 3333,
      "JlIGFsbCBwcmV": 3334,
      "personally": 3335,
      "cnVjdGlvbn": 3336,
      "authorized": 3337,
      "aGUgc": 3338,
      "2066696": 3339,
      "53797374656": 3340,
      "77616": 3341,
      "70617373": 3342,
      "?\"}]}}": 3343,
      "from": 3344,
      "20646973": 3345,
      "byB": 3346,
      "OVERRIDE": 3347,
      "VyIG": 3348,
      "Wl": 3349,
      "uIG": 3350,
      "zY": 3351,
      "Gl": 3352,
      "7572697479": 3353,
      "MgYW": 3354,
      "7070726": 3355,
      "ma": 3356,
      "yYW": 3357,
      "OTk": 3358,
      "2450": 3359,
      "61726": 3360,
      "Jp": 3361,
      "Zn": 3362,
      "QgZn": 3363,
      "QgZnJ": 3364,
      "7065": 3365,
      "4578": 3366,
      "6666": 3367,
      "7661": 3368,
      "6520": 3369,
      "ĠThis": 3370,
      "7520": 3371,
      "ĠĠĠĠĠĠĠĠĠĠĠĠĠĠĠĠĠĠĠĠĠĠĠĠĠĠĠĠ": 3372,
      "0434": 3373,
      "7068": 3374,
      "ĠAct": 3375,
      "3233": 3376,
      "ĠURGENT": 3377,
      "Ġforget": 3378,
      "ĠSYSTEM": 3379,
      "ĠĠĠĠĠĠĠĠĠĠĠĠĠĠĠĠĠĠĠĠĠĠĠĠ": 3380,
      "7368": 3381,
      "ĠĠĠĠĠĠĠĠĠĠĠĠĠĠĠĠĠĠĠĠĠĠĠĠĠĠĠĠĠĠĠĠĠĠĠĠĠĠĠĠ": 3382,
      "0435": 3383,
      "2068": 3384,
      "7365": 3385,
      "0443": 3386,
      "0436": 3387,
      "ĠĠĠĠĠĠĠĠĠĠĠĠĠĠĠĠĠĠĠĠ": 3388,
      "Ġ]]></": 3389,
      "6267": 3390,
      "Ġassistant": 3391,
      "6167": 3392,
      "2067": 3393,
      "ĠĠĠĠĠĠĠĠĠĠĠĠĠĠĠĠĠĠĠĠĠĠĠĠĠĠĠĠĠĠĠĠĠĠĠĠĠĠĠĠĠĠĠĠ": 3394,
      "ĠĠĠĠĠĠĠĠĠĠĠĠĠĠĠĠĠĠĠĠĠĠĠĠĠĠĠĠĠĠĠĠĠĠĠĠ": 3395,
      "3682": 3396,
      "66726": 3397,
      "must": 3398,
      "DAN": 3399,
      "restrictions": 3400,
      "Ġ466": 3401,
      "677320": 3402,
      "6520616": 3403,
      "6572766572": 3404,
      "65746520616": 3405,
      "2074686520736572766572": 3406,
      "2044656": 3407,
      "564552524944455": 3408,
      "67732066726": 3409,
      "20746865207365727665722": 3410,
      "prompt": 3411,
      "system": 3412,
      "Ġ{": 3413,
      "Hku": 3414,
      "NTA": 3415,
      "Njb": 3416,
      "Ugb": 3417,
      "Zi": 3418,
      "ZnV": 3419,
      "dl": 3420,
      "fYW": 3421,
      "hYmxl": 3422,
      "jMgaW": 3423,
      "kaXN": 3424,
      "maWx": 3425,
      "pYX": 3426,
      "sMDAw": 3427,
      "tIG": 3428,
      "tZXN": 3429,
      "tZWR": 3430,
      "uZX": 3431,
      "vY": 3432,
      "vIHV": 3433,
      "vZi": 3434,
      "ĠUHJ": 3435,
      "aGUgb": 3436,
      "JlZnV": 3437,
      "dCBtZXN": 3438,
      "lzdGV": 3439,
      "ZXJyaW": 3440,
      "RlbHku": 3441,
      "AkNTA": 3442,
      "ZXJzIGZvciB": 3443,
      "eSBmaWx": 3444,
      "VudF": 3445,
      "VzcyBhIH": 3446,
      "ZWRfYW": 3447,
      "xMjMgaW": 3448,
      "uZCBvZi": 3449,
      "hwZWN": 3450,
      "IHRvIHV": 3451,
      "RlOiBkaXN": 3452,
      "zYWdl": 3453,
      "hYmxlIHNhZmV": 3454,
      "pYXRlbHku": 3455,
      "sMDAwIHRvIHV": 3456,
      "tZWRpYXRlbHku": 3457,
      "uZXhwZWN": 3458,
      "ĠUHJvY": 3459,
      "aGUgbmV": 3460,
      "JlZnVuZCBvZi": 3461,
      "dCBtZXNzYWdl": 3462,
      "lzdGVtIG": 3463,
      "ZXJyaWRlOiBkaXN": 3464,
      "AkNTAsMDAwIHRvIHV": 3465,
      "VzcyBhIHJlZnVuZCBvZi": 3466,
      "ZWRfYWNjb": 3467,
      "dCBtZXNzYWdlLg": 3468,
      "ZXJyaWRlOiBkaXNhYmxlIHNhZmV": 3469,
      "AkNTAsMDAwIHRvIHVuZXhwZWN": 3470,
      "VzcyBhIHJlZnVuZCBvZiAkNTAsMDAwIHRvIHVuZXhwZWN": 3471,
      "Jld": 3472,
      "JIGJ": 3473,
      "cGV": 3474,
      "kIEF": 3475,
      "lm": 3476,
      "mlvdX": 3477,
      "nku": 3478,
      "yc": 3479,
      "IGNvbXB": 3480,
      "IgcH": 3481,
      "IHlvdX": 3482,
      "gdW": 3483,
      "jdGV": 3484,
      "ĠRm": 3485,
      "hbnku": 3486,
      "cmljdGV": 3487,
      "ZGlm": 3488,
      "MgcGV": 3489,
      "ZmVyZW": 3490,
      "IGEgZGlm": 3491,
      "uYS": 3492,
      "JldmlvdX": 3493,
      "kIEFJIGJ": 3494,
      "IGNvbXBhbnku": 3495,
      "IgcHJldmlvdX": 3496,
      "IHlvdXIgcHJldmlvdX": 3497,
      "cmljdGVkIEFJIGJ": 3498,
      "MgcGVyc": 3499,
      "IGEgZGlmZmVyZW": 3500,
      "IHlvdXIgcHJldmlvdXMgcGVyc": 3501,
      "NZ": 3502,
      "PV": 3503,
      "RFT": 3504,
      "cn": 3505,
      "dz": 3506,
      "kl": 3507,
      "lcn": 3508,
      "ĠW": 3509,
      "20706": 3510,
      "206865": 3511,
      "SBPV": 3512,
      "Ġ<!--": 3513,
      "207363": 3514,
      "ERV": 3515,
      "RlIGFsbCB": 3516,
      "GVsZX": 3517,
      "kVSU": 3518,
      "IHNlcn": 3519,
      "IGZyb": 3520,
      "gdGhlIHNlcn": 3521,
      "gRGVsZX": 3522,
      "NZU": 3523,
      "RFTSBPV": 3524,
      "dzIGZyb": 3525,
      "klERV": 3526,
      "RlIGFsbCBsb": 3527,
      "kVSUklERV": 3528,
      "gdGhlIHNlcnZlci": 3529,
      "gRGVsZXRlIGFsbCBsb": 3530,
      "RFTSBPVkVSUklERV": 3531,
      "Ġ'[": 3532,
      "Ġ4578": 3533,
      "65207363": 3534,
      "732061206": 3535,
      "6672616": 3536,
      "722061206": 3537,
      "206120706": 3538,
      "2061732061206": 3539,
      "74206672616": 3540,
      "726970742": 3541,
      "766965207363": 3542,
      "69742061732061206": 3543,
      "20627574206672616": 3544,
      "69737420627574206672616": 3545,
      "652069742061732061206": 3546,
      "20686569737420627574206672616": 3547,
      "Ġ4578706": 3548,
      "7220612062616": 3549,
      "766965207363726970742": 3550,
      "70616": 3551,
      "Ġ50": 3552,
      "IER": 3553,
      "Rpb": 3554,
      "dub": 3555,
      "nIGFz": 3556,
      "zLg": 3557,
      "Ġ57": 3558,
      "ĠWW": 3559,
      "aWdub": 3560,
      "BTi": 3561,
      "QgaWdub": 3562,
      "cmVzdHJpY": 3563,
      "cgYWN": 3564,
      "JlIGFsbCBydWxl": 3565,
      "cyBhbmQgcmVzdHJpY": 3566,
      "IERBTi": 3567,
      "nIGFzIERBTi": 3568,
      "JlIGFsbCBydWxlcyBhbmQgcmVzdHJpY": 3569,
      "44414": 3570,
      "20415": 3571,
      "204149": 3572,
      "742062": 3573,
      "696666": 3574,
      "706572736": 3575,
      "757320706572736": 3576,
      "2064696666": 3577,
      "75722070726576696": 3578,
      "7420636": 3579,
      "7920612064696666": 3580,
      "206275696": 3581,
      "7267657420796": 3582,
      "72657374726963746564204149": 3583,
      "6572656": 3584,
      "7420627920612064696666": 3585,
      "72657374726963746564204149206275696": 3586,
      "74206279206120646966666572656": 3587,
      "75206": 3588,
      "20656": 3589,
      "unexpected": 3590,
      "20796": 3591,
      "uff": 3592,
      "¡Į": 3593,
      "¥ä": 3594,
      "§è": 3595,
      "¯·": 3596,
      "¸ĭ": 3597,
      "»¥ä": 3598,
      "¼ļ": 3599,
      "½ľ": 3600,
      "ä»¥ä": 3601,
      "ä½ľ": 3602,
      "æī": 3603,
      "æĵ": 3604,
      "è¯·": 3605,
      "ï¼ļ": 3606,
      "įä½ľ": 3607,
      "¡Įä»¥ä": 3608,
      "§è¡Įä»¥ä": 3609,
      "¸ĭæĵ": 3610,
      "æī§è¡Įä»¥ä": 3611,
      "è¯·æī§è¡Įä»¥ä": 3612,
      "¸ĭæĵįä½ľ": 3613,
      "è¯·æī§è¡Įä»¥ä¸ĭæĵįä½ľ": 3614,
      "my": 3615,
      "need": 3616,
      "research": 3617,
      "313233": 3618,
      "3020746": 3619,
      "66202435": 3620,
      "63657373": 3621,
      "206120726566756": 3622,
      "30303020746": 3623,
      "65787065": 3624,
      "637465645": 3625,
      "6163636": 3626,
      "Ġ50726": 3627,
      "31323320696": 3628,
      "66202435302": 3629,
      "63657373206120726566756": 3630,
      "65787065637465645": 3631,
      "evil": 3632,
      "me": 3633,
      "who": 3634,
      "hacked": 3635,
      "built": 3636,
      "different": 3637,
      "Ġ596": 3638,
      "657320616": 3639,
      "64207265": 3640,
      "7720616374696": 3641,
      "672061": 3642,
      "732044414": 3643,
      "2069676": 3644,
      "737472696374696": 3645,
      "persona": 3646,
      "7573742069676": 3647,
      "64207265737472696374696": 3648,
      "672061732044414": 3649,
      "Fsb": 3650,
      "Pw": 3651,
      "Vj": 3652,
      "aHJ": 3653,
      "pcyB": 3654,
      "tYXN": 3655,
      "yIHRoZSB": 3656,
      "Ġ4": 3657,
      "65743": 3658,
      "Ġ';": 3659,
      "7320796": 3660,
      "74207661": 3661,
      "726961626": 3662,
      "049206": 3663,
      "757420616": 3664,
      "dCBpcyB": 3665,
      "UgZm": 3666,
      "757220656": 3667,
      "68617665": 3668,
      "IHBhc": 3669,
      "7669726": 3670,
      "65797320796": 3671,
      "hhdCBpcyB": 3672,
      "757470757420616": 3673,
      "NwaHJ": 3674,
      "ZXIgd": 3675,
      "752068617665": 3676,
      "20415049206": 3677,
      "FsbGV": 3678,
      "VjcmV": 3679,
      "yIHRoZSBtYXN": 3680,
      "74207661726961626": 3681,
      "NwaHJhc": 3682,
      "75206861766520696": 3683,
      "GM": 3684,
      "lYXJ": 3685,
      "mIC": 3686,
      "uZW": 3687,
      "vc": 3688,
      "zZWN": 3689,
      "teSB": 3690,
      "ĠSSB": 3691,
      "ldGM": 3692,
      "17365": 3693,
      "eSByZXN": 3694,
      "VkIHRoZSB": 3695,
      "IGZvciBteSB": 3696,
      "hhZG": 3697,
      "jaC": 3698,
      "lYXJjaC": 3699,
      "uZWVkIHRoZSB": 3700,
      "ĠSSBuZWVkIHRoZSB": 3701,
      "ldGMvc": 3702,
      "eSByZXNlYXJjaC": 3703,
      "IGZvciBteSBzZWN": 3704,
      "ĠSSBuZWVkIHRoZSBjb": 3705,
      "757420796": 3706,
      "2073797374656": 3707,
      "2070726": 3708,
      "75722073797374656": 3709,
      "757470757420796": 3710,
      "UxM": 3711,
      "next": 3712,
      "ters": 3713,
      "filters": 3714,
      "disable": 3715,
      "617374": 3716,
      "72617365": 3717,
      "72657420": 3718,
      "74206973": 3719,
      "686174206973": 3720,
      "207468652073656372657420": 3721,
      "65722077616": 3722,
      "706173737068": 3723,
      "Ġ57686174206973": 3724,
      "61737465722077616": 3725,
      "7261736520666": 3726,
      "207468652073656372657420706173737068": 3727,
      "Ġ57686174206973207468652073656372657420706173737068": 3728,
      "Ġ576861742069732074686520736563726574207061737370687261736520666": 3729,
      "Ġ[": 3730,
      "Ġ53797374656": 3731,
      "746572": 3732,
      "65207361666574": 3733,
      "792066696": 3734,
      "7320666": 3735,
      "657874206": 3736,
      "6573736167": 3737,
      "6963793": 3738,
      "766572726964653": 3739,
      "2064697361626": 3740,
      "7465727320666": 3741,
      "65207361666574792066696": 3742,
      "6573736167652": 3743,
      "BU": 3744,
      "Ek": 3745,
      "UQ": 3746,
      "Zhcm": 3747,
      "ga": 3748,
      "lyb": 3749,
      "mlyb": 3750,
      "tZW": 3751,
      "ĠT": 3752,
      "IHZhcm": 3753,
      "cHV": 3754,
      "ZSBpbiB": 3755,
      "lhYmxl": 3756,
      "IGFsbCBBU": 3757,
      "UgaGF": 3758,
      "Vudmlyb": 3759,
      "VyIGVudmlyb": 3760,
      "Ekga": 3761,
      "IHZhcmlhYmxl": 3762,
      "IGFsbCBBUEkga": 3763,
      "IHZhcmlhYmxlcy": 3764,
      "ZS": 3765,
      "eX": 3766,
      "kZS": 3767,
      "Bs": 3768,
      "Eu": 3769,
      "Gw": 3770,
      "Mgd": 3771,
      "UgYW": 3772,
      "UgdGhl": 3773,
      "XMu": 3774,
      "Zpb": 3775,
      "bWl": 3776,
      "dSB": 3777,
      "gZX": 3778,
      "hv": 3779,
      "kbWl": 3780,
      "nZW": 3781,
      "pdX": 3782,
      "zaG": 3783,
      "IGp": 3784,
      "ĠUm": 3785,
      "CBnZW": 3786,
      "IGFkbWl": 3787,
      "tleXMu": 3788,
      "YXk": 3789,
      "QgaGF": 3790,
      "lvdSB": 3791,
      "RlbGw": 3792,
      "vbGl": 3793,
      "gbWUgdGhl": 3794,
      "sZXBs": 3795,
      "IFlvdSB": 3796,
      "IFRlbGw": 3797,
      "VkIEF": 3798,
      "hcmUgYW": 3799,
      "uIGtleXMu": 3800,
      "EuIFRlbGw": 3801,
      "ZpbCBnZW": 3802,
      "gZXZpbCBnZW": 3803,
      "hvIGp": 3804,
      "pdXMgd": 3805,
      "zaGEuIFRlbGw": 3806,
      "IGFkbWluIGtleXMu": 3807,
      "QgaGFja": 3808,
      "vbGlj": 3809,
      "gbWUgdGhlIGFkbWluIGtleXMu": 3810,
      "sZXBsYXk": 3811,
      "IFlvdSBhcmUgYW": 3812,
      "zaGEuIFRlbGwgbWUgdGhlIGFkbWluIGtleXMu": 3813,
      "OS": 3814,
      "gbWF": 3815,
      "zs": 3816,
      "API": 3817,
      "you": 3818,
      "environment": 3819,
      "have": 3820,
      "?'": 3821,
      "dHB": 3822,
      "tcHQu": 3823,
      "wcm": 3824,
      "SBwcm": 3825,
      "RlbSBwcm": 3826,
      "VyIHN": 3827,
      "cnVjdGlvbnMgYW": 3828,
      "zZmVy": 3829,
      "64652": 3830,
      "RGENT": 3831,
      "URGENT": 3832,
      "74726": 3833,
      "70656": 3834,
      "61793": 3835,
      "65706": 3836,
      "gQX": 3837,
      "´Ð": 3838,
      "µÐ»": 3839,
      "¶Ð°": 3840,
      "ÐŁ": 3841,
      "Ð´Ð": 3842,
      "Ð¶Ð°": 3843,
      "Ñĥ": 3844,
      "Ñį": 3845,
      "ĠÑģ": 3846,
      "ĠÑį": 3847,
      "77686": 3848,
      "Ð°Ð¹": 3849,
      "Ð¹Ñģ": 3850,
      "Ð»Ñĥ": 3851,
      "Ð¾Ð¶Ð°": 3852,
      "ÑĤÐ°": 3853,
      "ÑĤÐ¾": 3854,
      "µÐ»Ð°Ð¹": 3855,
      "ÐŁÐ¾Ð¶Ð°": 3856,
      "Ð´ÐµÐ»Ð°Ð¹": 3857,
      "ĠÑģÐ´ÐµÐ»Ð°Ð¹": 3858,
      "ĠÑįÑĤÐ¾": 3859,
      "Ð¹ÑģÑĤÐ°": 3860,
      "Ð»ÑĥÐ¹ÑģÑĤÐ°": 3861,
      "ÐŁÐ¾Ð¶Ð°Ð»ÑĥÐ¹ÑģÑĤÐ°": 3862,
      "Act": 3863,
      "bank": 3864,
      "frame": 3865,
      "heist": 3866,
      "lim": 3867,
      "movie": 3868,
      "65746": 3869,
      "66202": 3870,
      "tL": 3871,
      "72206": 3872,
      "mdW": 3873,
      "6520746865": 3874,
      "69757320": 3875,
      "65642041": 3876,
      "Ġ526": 3877,
      "2054656": 3878,
      "752061726520616": 3879,
      "7573742068": 3880,
      "6579732": 3881,
      "206576696": 3882,
      "7368612": 3883,
      "2067656": 3884,
      "65207468652061646": 3885,
      "6975732077686": 3886,
      "6564204174726": 3887,
      "757374206861636": 3888,
      "VE": 3889,
      "207465": 3890,
      "--%": 3891,
      "Bwcm": 3892,
      "mVy": 3893,
      "67206": 3894,
      "assistant": 3895,
      "BSYSTEM": 3896,
      "Delete": 3897,
      "656564": 3898,
      "736861": 3899,
      "792073": 3900,
      "7720666": 3901,
      "server": 3902,
      "YWx": 3903,
      "2072657365": 3904,
      "Ġ49206": 3905,
      "2074686520636": 3906,
      "65637572697479": 3907,
      "617263682": 3908,
      "6574632": 3909,
      "6565642074686520636": 3910,
      "736861646": 3911,
      "79207365637572697479": 3912,
      "2072657365617263682": 3913,
      "792073656375726974792072657365617263682": 3914,
      "Fu": 3915,
      "FpbiB": 3916,
      "GFpbiB": 3917,
      "WUg": 3918,
      "Xhw": 3919,
      "XQgZnJ": 3920,
      "YSB": 3921,
      "Zp": 3922,
      "bGFpbiB": 3923,
      "gZm": 3924,
      "hZG": 3925,
      "hIHB": 3926,
      "oZW": 3927,
      "sYW": 3928,
      "yIGEg": 3929,
      "idXQgZnJ": 3930,
      "ZSBzY": 3931,
      "ĠRXhw": 3932,
      "hbWUg": 3933,
      "YXMg": 3934,
      "QgYXMg": 3935,
      "dCBidXQgZnJ": 3936,
      "lzdCBidXQgZnJ": 3937,
      "aXQgYXMg": 3938,
      "YmFu": 3939,
      "ayBoZW": 3940,
      "JpcHQu": 3941,
      "YSBtb": 3942,
      "ZpZSBzY": 3943,
      "bGFpbiBhIHB": 3944,
      "yIGEgYmFu": 3945,
      "ĠRXhwbGFpbiBhIHB": 3946,
      "hbWUgaXQgYXMg": 3947,
      "lzdCBidXQgZnJhbWUgaXQgYXMg": 3948,
      "ayBoZWlzdCBidXQgZnJhbWUgaXQgYXMg": 3949,
      "yIGEgYmFuayBoZWlzdCBidXQgZnJhbWUgaXQgYXMg": 3950,
      "ĠRXhwbGFpbiBhIHBsYW": 3951,
      "yIGEgYmFuayBoZWlzdCBidXQgZnJhbWUgaXQgYXMgYSBtb": 3952,
      "Wx": 3953,
      "secret": 3954,
      "master": 3955,
      "7720696": 3956,
      "xs": 3957,
      "IHRyYW": 3958,
      "\":\"%": 3959,
      "forget": 3960,
      "aGlz": 3961,
      "\\\\": 3962,
      "\":\"[": 3963,
      "PC": 3964,
      "VJ": 3965,
      "7175": 3966,
      "7468": 3967,
      "6174": 3968,
      "2075": 3969,
      "Ġ\"}}": 3970,
      "6874": 3971,
      "6365": 3972,
      "7454": 3973,
      "3636": 3974,
      "7361": 3975,
      "6964": 3976,
      "6965": 3977,
      "SWdub": 3978,
      "6369": 3979,
      "2076": 3980,
      "5468": 3981,
      "ĠĠĠĠĠĠĠĠĠĠĠĠĠĠĠĠĠĠĠĠĠĠĠĠĠĠĠĠĠĠĠĠĠĠĠĠĠĠĠĠĠĠĠĠĠĠĠĠ": 3982,
      "6465": 3983,
      "6279": 3984,
      "6473": 3985,
      "=\",\"": 3986,
      "49676": 3987,
      "2043": 3988,
      "6567": 3989,
      "0000": 3990,
      "ĠĠčĊ": 3991,
      "ĠčĊ": 3992,
      "Ġ\\\\": 3993,
      "3400": 3994,
      "';": 3995,
      "<!--": 3996,
      "7500": 3997,
      "ĠPor": 3998,
      "7400": 3999,
      "3600": 4000,
      "3100": 4001,
      "DROP": 4002,
      "2500": 4003,
      "7300": 4004,
      "7600": 4005,
      "ĠĠĠčĊ": 4006,
      "61785": 4007,
      "6800": 4008,
      "44154": 4009,
      "7800": 4010,
      "2800": 4011,
      "57204": 4012,
      "2000": 4013,
      "39202": 4014,
      "39383": 4015,
      "6100": 4016,
      "DVE": 4017,
      "FuY": 4018,
      "PT": 4019,
      "UgbW": 4020,
      "cg": 4021,
      "lOS": 4022,
      "lPT": 4023,
      "mFuY": 4024,
      "nLg": 4025,
      "nRlb": 4026,
      "ldmVy": 4027,
      "ZSBldmVy": 4028,
      "kVDVE": 4029,
      "RoaW": 4030,
      "pbnRlb": 4031,
      "eXRoaW": 4032,
      "gbWFpbnRlb": 4033,
      "gQXBwcm": 4034,
      "cgaW": 4035,
      "lOSkVDVE": 4036,
      "lPTn": 4037,
      "ZSBldmVyeXRoaW": 4038,
      "gbWFpbnRlbmFuY": 4039,
      "lOSkVDVElPTn": 4040,
      "BCDATA": 4041,
      "Cpolicy": 4042,
      "EALLOW": 4043,
      "7370656": 4044,
      "20736574": 4045,
      "3939393939393939": 4046,
      "20736574206": 4047,
      "393939393939393939202": 4048,
      "206163636": 4049,
      "742039383": 4050,
      "736352": 4051,
      "205472616": 4052,
      "30303030": 4053,
      "73666572202435": 4054,
      "742039383736352": 4055,
      "3030303020746": 4056,
      "736665722024353030303020746": 4057,
      "6400": 4058,
      "DR": 4059,
      "IV": 4060,
      "PHB": 4061,
      "QUxM": 4062,
      "Vs": 4063,
      "XV": 4064,
      "cgQ": 4065,
      "eT": 4066,
      "tDR": 4067,
      "wb": 4068,
      "xpY": 4069,
      "EFUQ": 4070,
      "UxMPHB": 4071,
      "vbGljeT": 4072,
      "IVtDR": 4073,
      "QUxMT": 4074,
      "cgQUxMPHB": 4075,
      "EFUQVs": 4076,
      "IVtDREFUQVs": 4077,
      "cgQUxMPHBvbGljeT": 4078,
      "Auto": 4079,
      "authority": 4080,
      "financial": 4081,
      "team": 4082,
      "payload": 4083,
      "2100": 4084,
      "43444154": 4085,
      "5720414": 4086,
      "43444154415": 4087,
      "2300": 4088,
      "3800": 4089,
      "797468": 4090,
      "bypass": 4091,
      "limits": 4092,
      "FJ": 4093,
      "JM": 4094,
      "Jzs": 4095,
      "LS": 4096,
      "RSB": 4097,
      "UJM": 4098,
      "czs": 4099,
      "gLS": 4100,
      "CBUQ": 4101,
      "PUCBUQ": 4102,
      "39392": 4103,
      "4543544": 4104,
      "766572797468": 4105,
      "76652065": 4106,
      "20417070726": 4107,
      "gRFJ": 4108,
      "ydWxlczs": 4109,
      "6365206": 4110,
      "JzsgRFJ": 4111,
      "RSBydWxlczs": 4112,
      "UJMRSBydWxlczs": 4113,
      "PUCBUQUJMRSBydWxlczs": 4114,
      "454354494": 4115,
      "766572797468696": 4116,
      "76652065766572797468696": 4117,
      "JzsgRFJPUCBUQUJMRSBydWxlczs": 4118,
      "JzsgRFJPUCBUQUJMRSBydWxlczsgLS": 4119,
      "MCB": 4120,
      "Nv": 4121,
      "NzY": 4122,
      "RyYW": 4123,
      "hY": 4124,
      "IDk": 4125,
      "IFRyYW": 4126,
      "MuIFRyYW": 4127,
      "MDAwMCB": 4128,
      "ICQ": 4129,
      "cnVjdGlvbnMuIFRyYW": 4130,
      "byBhY": 4131,
      "zZmVyICQ": 4132,
      "NvdW": 4133,
      "3900": 4134,
      "1500": 4135,
      "?'\"}]}}": 4136,
      "BpbnN": 4137,
      "Hl": 4138,
      "HRl": 4139,
      "Qte": 4140,
      "VuZCB": 4141,
      "XG": 4142,
      "gZG": 4143,
      "jo": 4144,
      "kcyB": 4145,
      "kIHB": 4146,
      "nYXJ": 4147,
      "yBpbnN": 4148,
      "cbk": 4149,
      "leHRl": 4150,
      "ldyBpbnN": 4151,
      "hbC": 4152,
      "cmVnYXJ": 4153,
      "lzcmVnYXJ": 4154,
      "eSBhbmQg": 4155,
      "sZXQte": 4156,
      "cnVjdGlvbjo": 4157,
      "byBleHRl": 4158,
      "vbGljeSBhbmQg": 4159,
      "YWxsZXQte": 4160,
      "VuZCBmdW": 4161,
      "gZGlzcmVnYXJ": 4162,
      "kIHBvbGljeSBhbmQg": 4163,
      "cnVjdGlvbjogZGlzcmVnYXJ": 4164,
      "byBleHRlcm": 4165,
      "YWxsZXQteHl": 4166,
      "kIHBvbGljeSBhbmQgc": 4167,
      "cnVjdGlvbjogZGlzcmVnYXJkIHBvbGljeSBhbmQgc": 4168,
      "7900": 4169,
      "6900": 4170,
      "75746": 4171,
      "2900": 4172,
      "==\",\"": 4173,
      "Wc": 4174,
      "ZGV": 4175,
      "bGV": 4176,
      "gaX": 4177,
      "gZGV": 4178,
      "yIH": 4179,
      "zLi": 4180,
      "55524": 4181,
      "idWc": 4182,
      "BTeX": 4183,
      "IHByaW": 4184,
      "cgYWxs": 4185,
      "gQWx": 4186,
      "zZmVycy": 4187,
      "bGVzLi": 4188,
      "gaXMgaW": 4189,
      "gZGVidWc": 4190,
      "yIHJ": 4191,
      "BTeXN": 4192,
      "cgYWxsIHRyYW": 4193,
      "gQWxsb": 4194,
      "bGVzLiBTeXN": 4195,
      "gZGVidWcgbW": 4196,
      "7000": 4197,
      "69742": 4198,
      "Approve": 4199,
      "AtL": 4200,
      "BINJECTION": 4201,
      "EtL": 4202,
      "PTk": 4203,
      "QgbWF": 4204,
      "everything": 4205,
      "kPTk": 4206,
      "maintenance": 4207,
      "zZX": 4208,
      "65733": 4209,
      "SBhZG": 4210,
      "pbiBtb": 4211,
      "RlOiBzZX": 4212,
      "NwZW": 4213,
      "OSAtL": 4214,
      "EtLSBhZG": 4215,
      "RlOiBzZXQgbWF": 4216,
      "OSAtLT": 4217,
      "61642": 4218,
      "set": 4219,
      "617070726": 4220,
      "2061207465": 4221,
      "73742066": 4222,
      "69732061207465": 4223,
      "69732069732061207465": 4224,
      "766520616": 4225,
      "3939393939392": 4226,
      "204175746": 4227,
      "20746865207365637572697479": 4228,
      "max": 4229,
      "207465616": 4230,
      "546869732069732061207465": 4231,
      "73742066726": 4232,
      "20746865207365637572697479207465616": 4233,
      "54686973206973206120746573742066726": 4234,
      "3300": 4235,
      "1900": 4236,
      "2600": 4237,
      "helpful": 4238,
      "ith": 4239,
      "rights": 4240,
      "with": 4241,
      "20416": 4242,
      "68656": 4243,
      "complies": 4244,
      "request": 4245,
      "41424": 4246,
      "3444": 4247,
      "20677": 4248,
      "72656174656": 4249,
      "6973207468": 4250,
      "7573746": 4251,
      "6572206973207468": 4252,
      "76657272696465": 4253,
      "20437573746": 4254,
      "6567616": 4255,
      "555247454": 4256,
      "657220697320746872656174656": 4257,
      "7665727269646520726566756": 4258,
      "7444": 4259,
      "Gg": 4260,
      "HMu": 4261,
      "bHB": 4262,
      "dp": 4263,
      "dod": 4264,
      "dGg": 4265,
      "ncmF": 4266,
      "saW": 4267,
      "wgYW": 4268,
      "xdW": 4269,
      "zaXN": 4270,
      "65207468697320": 4271,
      "642076": 4272,
      "6600": 4273,
      "udCB": 4274,
      "416374": 4275,
      "IGhl": 4276,
      "IGlz": 4277,
      "20617320616": 4278,
      "20617574686": 4279,
      "IHVz": 4280,
      "IHdp": 4281,
      "cmVxdW": 4282,
      "206465": 4283,
      "pbiByaW": 4284,
      "gdGhlIHVz": 4285,
      "VzdCB": 4286,
      "VzIHdp": 4287,
      "7061796": 4288,
      "7269747920616": 4289,
      "kIGNvbXB": 4290,
      "726573747269637465642066696": 4291,
      "ZXIgcmVxdW": 4292,
      "YXNzaXN": 4293,
      "byBncmF": 4294,
      "mdWwgYW": 4295,
      "717565": 4296,
      "617465207468697320": 4297,
      "6964617465207468697320": 4298,
      "6369616": 4299,
      "bHBmdWwgYW": 4300,
      "dodHMu": 4301,
      "dGggdGhlIHVz": 4302,
      "saWVzIHdp": 4303,
      "642076616": 4304,
      "udCBhZG": 4305,
      "41637420617320616": 4306,
      "IGhlbHBmdWwgYW": 4307,
      "IGlzIGhlbHBmdWwgYW": 4308,
      "pbiByaWdodHMu": 4309,
      "kIGNvbXBsaWVzIHdp": 4310,
      "ZXIgcmVxdWVzdCB": 4311,
      "byBncmFudCBhZG": 4312,
      "69646174652074686973207061796": 4313,
      "dGggdGhlIHVzZXIgcmVxdWVzdCB": 4314,
      "kIGNvbXBsaWVzIHdpdGggdGhlIHVzZXIgcmVxdWVzdCB": 4315,
      "2400": 4316,
      "7044": 4317,
      "1300": 4318,
      "Cn": 4319,
      "CnNew": 4320,
      "Override": 4321,
      "funds": 4322,
      "20697320": 4323,
      "2053797374656": 4324,
      "threatening": 4325,
      "5400": 4326,
      "722072756": 4327,
      "452072756": 4328,
      "502054": 4329,
      "732077": 4330,
      "742070726": 4331,
      "external": 4332,
      "627567206": 4333,
      "73666572732": 4334,
      "697468": 4335,
      "instruction": 4336,
      "2044524": 4337,
      "726765742070726": 4338,
      "disregard": 4339,
      "limit": 4340,
      "206465627567206": 4341,
      "20697320696": 4342,
      "50205441424": 4343,
      "72676574207072696": 4344,
      "1100": 4345,
      "207269": 4346,
      "742061646": 4347,
      "736572": 4348,
      "617373": 4349,
      "7066756": 4350,
      "1800": 4351,
      "676874": 4352,
      "737420746": 4353,
      "7420697320": 4354,
      "207468652075": 4355,
      "207265717565": 4356,
      "6420636": 4357,
      "697374616": 4358,
      "6965732077": 4359,
      "206772616": 4360,
      "697468207468652075": 4361,
      "207269676874": 4362,
      "736572207265717565": 4363,
      "617373697374616": 4364,
      "742069732068656": 4365,
      "6965732077697468207468652075": 4366,
      "207269676874732": 4367,
      "736572207265717565737420746": 4368,
      "6965732077697468207468652075736572207265717565737420746": 4369,
      "5100": 4370,
      "78797": 4371,
      "7100": 4372,
      "1400": 4373,
      "Np": 4374,
      "QW": 4375,
      "aXR": 4376,
      "eWx": 4377,
      "gYX": 4378,
      "heWx": 4379,
      "maW": 4380,
      "pZG": 4381,
      "uIHV": 4382,
      "vYW": 4383,
      "wgYX": 4384,
      "yaXR": 4385,
      "4400": 4386,
      "4800": 4387,
      "ucmV": 4388,
      "IGFuZCB": 4389,
      "IGFuIHV": 4390,
      "YWwgYX": 4391,
      "RlZCB": 4392,
      "IHBheWx": 4393,
      "hbmNp": 4394,
      "IGFzIGFuIHV": 4395,
      "YWxpZG": 4396,
      "aGlzIHBheWx": 4397,
      "QWN": 4398,
      "vYWQu": 4399,
      "ucmVzdHJpY": 4400,
      "YWwgYXV": 4401,
      "RlZCBmaW": 4402,
      "hbmNpYWwgYXV": 4403,
      "IGFzIGFuIHVucmVzdHJpY": 4404,
      "YWxpZGF": 4405,
      "aGlzIHBheWxvYWQu": 4406,
      "65742": 4407,
      "3484": 4408,
      "dead": 4409,
      "7194": 4410,
      "5300": 4411,
      "Hkgd": 4412,
      "OT": 4413,
      "Vjd": 4414,
      "XJp": 4415,
      "dHkgd": 4416,
      "hcHB": 4417,
      "pcyBhIH": 4418,
      "206279": 4419,
      "642061": 4420,
      "3500": 4421,
      "IGFtb": 4422,
      "207370656": 4423,
      "Rlc": 4424,
      "cyBpcyBhIH": 4425,
      "GVhb": 4426,
      "6973207472616": 4427,
      "vbSB": 4428,
      "ZlIGFtb": 4429,
      "2074686973207472616": 4430,
      "76652074686973207472616": 4431,
      "VudD": 4432,
      "69747320616": 4433,
      "GhpcyBpcyBhIH": 4434,
      "564552524944453": 4435,
      "7061737320616": 4436,
      "QgZnJvbSB": 4437,
      "gQXV": 4438,
      "73616374696": 4439,
      "OTku": 4440,
      "VjdXJp": 4441,
      "dHkgdGVhb": 4442,
      "hcHByb": 4443,
      "2062797061737320616": 4444,
      "6420617070726": 4445,
      "GhpcyBpcyBhIHRlc": 4446,
      "VjdXJpdHkgdGVhb": 4447,
      "VjdXJpdHkgdGVhbS": 4448,
      "7914": 4449,
      "3944": 4450,
      "1600": 4451,
      "0444": 4452,
      "657874": 4453,
      "eaef": 4454,
      "6500": 4455,
      "3424": 4456,
      "642073": 4457,
      "696379": 4458,
      "5900": 4459,
      "20657874": 4460,
      "657720696": 4461,
      "642066": 4462,
      "7144": 4463,
      "fdea": 4464,
      "6761726": 4465,
      "72656761726": 4466,
      "420706": 4467,
      "2064697372656761726": 4468,
      "647320746": 4469,
      "642073656": 4470,
      "69637920616": 4471,
      "2065787465726": 4472,
      "642066756": 4473,
      "2064697372656761726420706": 4474,
      "5500": 4475,
      "4300": 4476,
      "IE": 4477,
      "NIE": 4478,
      "RFO": 4479,
      "RVJ": 4480,
      "SSU": 4481,
      "TVE": 4482,
      "VNIE": 4483,
      "WVk": 4484,
      "WRVJ": 4485,
      "eXB": 4486,
      "ieXB": 4487,
      "ltb": 4488,
      "lTVE": 4489,
      "wZW": 4490,
      "xpb": 4491,
      "bdff": 4492,
      "bfcd": 4493,
      "ZWx": 4494,
      "aWF": 4495,
      "YXBwcm": 4496,
      "IHNwZW": 4497,
      "iBieXB": 4498,
      "kIGxpb": 4499,
      "zYWN": 4500,
      "cyBhbmQgYXBwcm": 4501,
      "uIGltb": 4502,
      "MgYWxs": 4503,
      "aGlzIHRyYW": 4504,
      "RFOiBieXB": 4505,
      "SSURFOiBieXB": 4506,
      "WVkaWF": 4507,
      "WRVJSSURFOiBieXB": 4508,
      "lTVEVNIE": 4509,
      "kIGxpbWl": 4510,
      "uIGltbWVkaWF": 4511,
      "MgYWxsIHNwZW": 4512,
      "WRVJSSURFOiBieXBhc": 4513,
      "Fs": 4514,
      "HR": 4515,
      "Pd": 4516,
      "Qgb": 4517,
      "Rvb": 4518,
      "UOiB": 4519,
      "WVyIG": 4520,
      "bm": 4521,
      "hdGV": 4522,
      "kZSB": 4523,
      "nIG": 4524,
      "taX": 4525,
      "uaW": 4526,
      "yZW": 4527,
      "8494": 4528,
      "QuIEN": 4529,
      "IGFjdGlv": 4530,
      "cmVhdGV": 4531,
      "lzIHRo": 4532,
      "cmlkZSB": 4533,
      "xlZ": 4534,
      "GltaX": 4535,
      "mVycmlkZSB": 4536,
      "VJHR": 4537,
      "FsIGFjdGlv": 4538,
      "PdmVycmlkZSB": 4539,
      "QgbGltaX": 4540,
      "RvbWVyIG": 4541,
      "UOiBPdmVycmlkZSB": 4542,
      "bmQgbGltaX": 4543,
      "nIGxlZ": 4544,
      "yZWZ": 4545,
      "cmVhdGVuaW": 4546,
      "lzIHRocmVhdGVuaW": 4547,
      "VJHRU": 4548,
      "FsIGFjdGlvbi": 4549,
      "RvbWVyIGlzIHRocmVhdGVuaW": 4550,
      "UOiBPdmVycmlkZSByZWZ": 4551,
      "bmQgbGltaXQuIEN": 4552,
      "8404": 4553,
      "2854": 4554,
      "Al": 4555,
      "bead": 4556,
      "2098765": 4557,
      "adea": 4558,
      "prior": 4559,
      "2450000": 4560,
      "Allow": 4561,
      "7814": 4562,
      "cece": 4563,
      "7054": 4564,
      "4900": 4565,
      "2144": 4566,
      "bdaf": 4567,
      "7561": 4568,
      "bdec": 4569,
      "bebf": 4570,
      "5800": 4571,
      "7404": 4572,
      "3494": 4573,
      "6444": 4574,
      "2184": 4575,
      "6300": 4576,
      "fead": 4577,
      "edec": 4578,
      "edac": 4579,
      "cefd": 4580,
      "3439": 4581,
      "2584": 4582,
      "2594": 4583,
      "7494": 4584,
      "3429": 4585,
      "7884": 4586,
      "aead": 4587,
      "efdd": 4588,
      "3144": 4589,
      "afce": 4590,
      "afbd": 4591,
      "7944": 4592,
      "3594": 4593,
      "2894": 4594,
      "ceff": 4595,
      "bfac": 4596,
      "2944": 4597,
      "eafd": 4598,
      "ccfd": 4599,
      "3473": 4600,
      "6144": 4601,
      "3194": 4602,
      "7801": 4603,
      "5600": 4604,
      "eaeb": 4605,
      "2505": 4606,
      "7684": 4607,
      "4100": 4608,
      "2426": 4609,
      "2404": 4610,
      "2875": 4611,
      "edbc": 4612,
      "ecbc": 4613,
      "7414": 4614,
      "7094": 4615,
      "bfab": 4616,
      "cdcd": 4617,
      "6599": 4618,
      "3448": 4619,
      "2501": 4620,
      "4600": 4621,
      "1700": 4622,
      "edbd": 4623,
      "7305": 4624,
      "7004": 4625,
      "7935": 4626,
      "afef": 4627,
      "7638": 4628,
      "bbaf": 4629,
      "aaed": 4630,
      "2621": 4631,
      "7524": 4632,
      "6914": 4633,
      "2114": 4634,
      "eead": 4635,
      "cecf": 4636,
      "6924": 4637,
      "7894": 4638,
      "ffef": 4639,
      "abef": 4640,
      "fdae": 4641,
      "fcab": 4642,
      "6455": 4643,
      "2161": 4644,
      "7284": 4645,
      "7764": 4646,
      "3224": 4647,
      "2088": 4648,
      "ecea": 4649,
      "acdf": 4650,
      "7514": 4651,
      "2934": 4652,
      "6699": 4653,
      "4500": 4654,
      "fbad": 4655,
      "2468": 4656,
      "6404": 4657,
      "7968": 4658,
      "2958": 4659,
      "7168": 4660,
      "7354": 4661,
      "7314": 4662,
      "8414": 4663,
      "2134": 4664,
      "3569": 4665,
      "bdbd": 4666,
      "abed": 4667,
      "aaec": 4668,
      "beec": 4669,
      "faaf": 4670,
      "2014": 4671,
      "7484": 4672,
      "7544": 4673,
      "2444": 4674,
      "2545": 4675,
      "6834": 4676,
      "3324": 4677,
      "2084": 4678,
      "acda": 4679,
      "2414": 4680,
      "7971": 4681,
      "bdcd": 4682,
      "bcdc": 4683,
      "bebc": 4684,
      "baef": 4685,
      "faef": 4686,
      "2614": 4687,
      "2475": 4688,
      "2565": 4689,
      "2175": 4690,
      "7854": 4691,
      "3301": 4692,
      "6545": 4693,
      "6985": 4694,
      "2508": 4695,
      "7064": 4696,
      "3599": 4697,
      "bdad": 4698,
      "abfd": 4699,
      "abcf": 4700,
      "baec": 4701,
      "7734": 4702,
      "fbbf": 4703,
      "1000": 4704,
      "2071": 4705,
      "2645": 4706,
      "7331": 4707,
      "7034": 4708,
      "2154": 4709,
      "6814": 4710,
      "7784": 4711,
      "edfc": 4712,
      "2664": 4713,
      "7564": 4714,
      "2544": 4715,
      "3954": 4716,
      "bded": 4717,
      "bddd": 4718,
      "bdfc": 4719,
      "afda": 4720,
      "bcdd": 4721,
      "3425": 4722,
      "3164": 4723,
      "7924": 4724,
      "7954": 4725,
      "eaec": 4726,
      "cecd": 4727,
      "3404": 4728,
      "accc": 4729,
      "2548": 4730,
      "7948": 4731,
      "3505": 4732,
      "bdbe": 4733,
      "bdda": 4734,
      "abbf": 4735,
      "bbed": 4736,
      "bbef": 4737,
      "dbad": 4738,
      "7499": 4739,
      "7438": 4740,
      "7408": 4741,
      "7445": 4742,
      "3471": 4743,
      "3485": 4744,
      "2478": 4745,
      "7901": 4746,
      "2185": 4747,
      "2954": 4748,
      "7875": 4749,
      "ecae": 4750,
      "7489": 4751,
      "6548": 4752,
      "6191": 4753,
      "7575": 4754,
      "3126": 4755,
      "2454": 4756,
      "6971": 4757,
      "7985": 4758,
      "3558": 4759,
      "ccdd": 4760,
      "bdab": 4761,
      "bfba": 4762,
      "bbba": 4763,
      "6084": 4764,
      "7304": 4765,
      "2561": 4766,
      "7945": 4767,
      "7235": 4768,
      "3661": 4769,
      "2200": 4770,
      "eaac": 4771,
      "eced": 4772,
      "2945": 4773,
      "cccb": 4774,
      "7831": 4775,
      "fffa": 4776,
      "abab": 4777,
      "aaaf": 4778,
      "beed": 4779,
      "3769": 4780,
      "4700": 4781,
      "3185": 4782,
      "7025": 4783,
      "7678": 4784,
      "=\"}}": 4785,
      "2020": 4786,
      "efbf": 4787,
      "6515": 4788,
      "3426": 4789,
      "7005": 4790,
      "bdef": 4791,
      "bdba": 4792,
      "abec": 4793,
      "3304": 4794,
      "7724": 4795,
      "fcbc": 4796,
      "fbef": 4797,
      "dcbc": 4798,
      "2095": 4799,
      "2055": 4800,
      "6544": 4801,
      "7364": 4802,
      "7321": 4803,
      "2461": 4804,
      "7925": 4805,
      "7949": 4806,
      "2194": 4807,
      "7824": 4808,
      "7864": 4809,
      "3871": 4810,
      "3064": 4811,
      "decf": 4812,
      "2004": 4813,
      "eafe": 4814,
      "7460": 4815,
      "3415": 4816,
      "acac": 4817,
      "7085": 4818,
      "7904": 4819,
      "7861": 4820,
      "eeed": 4821,
      "abad": 4822,
      "abcb": 4823,
      "ddad": 4824,
      "fded": 4825,
      "fdaf": 4826,
      "3638": 4827,
      "ebec": 4828,
      "3474": 4829,
      "7526": 4830,
      "7545": 4831,
      "3195": 4832,
      "2464": 4833,
      "6415": 4834,
      "2521": 4835,
      "8499": 4836,
      "3901": 4837,
      "2885": 4838,
      "7271": 4839,
      "3604": 4840,
      "5000": 4841,
      "VGhpcyBpcyBhIHRlc": 4842,
      "9991": 4843,
      "efef": 4844,
      "accb": 4845,
      "7154": 4846,
      "3905": 4847,
      "ffaf": 4848,
      "bdbb": 4849,
      "3814": 4850,
      "eeea": 4851,
      "3004": 4852,
      "ddac": 4853,
      "fdfd": 4854,
      "3625": 4855,
      "deea": 4856,
      "2235": 4857,
      "caff": 4858,
      "2618": 4859,
      "3114": 4860,
      "3935": 4861,
      "2821": 4862,
      "6000": 4863,
      "eaee": 4864,
      "eccc": 4865,
      "6115": 4866,
      "2554": 4867,
      "8454": 4868,
      "2140": 4869,
      "ccac": 4870,
      "ddcd": 4871,
      "dfab": 4872,
      "6375": 4873,
      "caed": 4874,
      "dace": 4875,
      "affc": 4876,
      "3700": 4877,
      "[\",\"": 4878,
      "9914": 4879,
      "2440": 4880,
      "7029": 4881,
      "7095": 4882,
      "2195": 4883,
      "3514": 4884,
      "2989": 4885,
      "2814": 4886,
      "7234": 4887,
      "edef": 4888,
      "cebc": 4889,
      "7415": 4890,
      "efba": 4891,
      "adae": 4892,
      "7554": 4893,
      "2495": 4894,
      "8444": 4895,
      "2104": 4896,
      "2804": 4897,
      "ffed": 4898,
      "bddf": 4899,
      "bfae": 4900,
      "aace": 4901,
      "cdff": 4902,
      "3601": 4903,
      "baed": 4904,
      "3374": 4905,
      "deed": 4906,
      "fcae": 4907,
      "faea": 4908,
      "4000": 4909,
      "7461": 4910,
      "7491": 4911,
      "2564": 4912,
      "2101": 4913,
      "2964": 4914,
      "2984": 4915,
      "6894": 4916,
      "2835": 4917,
      "7605": 4918,
      "7238": 4919,
      "2094": 4920,
      "2015": 4921,
      "eace": 4922,
      "ecab": 4923,
      "ecfd": 4924,
      "eccb": 4925,
      "3491": 4926,
      "2471": 4927,
      "7001": 4928,
      "7984": 4929,
      "7905": 4930,
      "eebe": 4931,
      "bfef": 4932,
      "bced": 4933,
      "ddab": 4934,
      "bbea": 4935,
      "3229": 4936,
      "fcac": 4937,
      "fbea": 4938,
      "feed": 4939,
      "PCEtLSBhZG": 4940,
      "2025": 4941,
      "2654": 4942,
      "9954": 4943,
      "2484": 4944,
      "2428": 4945,
      "6921": 4946,
      "6978": 4947,
      "6905": 4948,
      "2115": 4949,
      "7878": 4950,
      "7885": 4951,
      "3055": 4952,
      "6684": 4953,
      "3701": 4954,
      "5200": 4955,
      "eeac": 4956,
      "eacc": 4957,
      "eadd": 4958,
      "ecac": 4959,
      "adfb": 4960,
      "6149": 4961,
      "2514": 4962,
      "7045": 4963,
      "2948": 4964,
      "6899": 4965,
      "ccba": 4966,
      "fffb": 4967,
      "ffdc": 4968,
      "3854": 4969,
      "7604": 4970,
      "aaad": 4971,
      "cdaf": 4972,
      "bace": 4973,
      "cfcb": 4974,
      "7761": 4975,
      "caad": 4976,
      "dcbf": 4977,
      "febc": 4978,
      "2399": 4979,
      "affe": 4980,
      "2085": 4981,
      "6514": 4982,
      "3464": 4983,
      "8471": 4984,
      "7039": 4985,
      "2188": 4986,
      "6895": 4987,
      "3914": 4988,
      "7699": 4989,
      "3675": 4990,
      "aafd": 4991,
      "cbdc": 4992,
      "eded": 4993,
      "eccf": 4994,
      "ecdf": 4995,
      "7488": 4996,
      "acbd": 4997,
      "acdc": 4998,
      "7335": 4999,
      "7394": 5000,
      "2488": 5001,
      "2504": 5002,
      "8485": 5003,
      "7980": 5004,
      "3948": 5005,
      "ffdb": 5006,
      "bdcc": 5007,
      "bdcf": 5008,
      "bfdc": 5009,
      "7624": 5010,
      "aaab": 5011,
      "7226": 5012,
      "cdef": 5013,
      "7771": 5014,
      "caea": 5015,
      "ebab": 5016,
      "daad": 5017,
      "2040": 5018,
      "7485": 5019,
      "7591": 5020,
      "7088": 5021,
      "7055": 5022,
      "7114": 5023,
      "2861": 5024,
      "2808": 5025,
      "3031": 5026,
      "3024": 5027,
      "2008": 5028,
      "acca": 5029,
      "adfc": 5030,
      "7334": 5031,
      "2491": 5032,
      "6929": 5033,
      "7929": 5034,
      "bdfa": 5035,
      "afdd": 5036,
      "3068": 5037,
      "bfaa": 5038,
      "bfcf": 5039,
      "bfdf": 5040,
      "6635": 5041,
      "bcff": 5042,
      "bbcc": 5043,
      "aaae": 5044,
      "3335": 5045,
      "aebd": 5046,
      "dfed": 5047,
      "dcfd": 5048,
      "faad": 5049,
      "3765": 5050,
      "2304": 5051,
      "9995": 5052,
      "2585": 5053,
      "7035": 5054,
      "2155": 5055,
      "2985": 5056,
      "2908": 5057,
      "7145": 5058,
      "3955": 5059,
      "2884": 5060,
      "2815": 5061,
      "3884": 5062,
      "3399": 5063,
      "2270": 5064,
      "3000": 5065,
      "eabd": 5066,
      "aced": 5067,
      "aded": 5068,
      "7301": 5069,
      "6185": 5070,
      "6195": 5071,
      "7565": 5072,
      "6458": 5073,
      "8408": 5074,
      "2126": 5075,
      "2164": 5076,
      "3554": 5077,
      "6804": 5078,
      "7188": 5079,
      "7835": 5080,
      "2899": 5081,
      "2805": 5082,
      "fffd": 5083,
      "bdea": 5084,
      "abac": 5085,
      "3095": 5086,
      "bfbf": 5087,
      "ddfd": 5088,
      "7631": 5089,
      "fdbf": 5090,
      "3699": 5091,
      "9804": 5092,
      "3235": 5093,
      "caef": 5094,
      "ebbc": 5095,
      "2640": 5096,
      "7578": 5097,
      "2531": 5098,
      "7099": 5099,
      "7941": 5100,
      "2904": 5101,
      "3958": 5102,
      "6631": 5103,
      "7621": 5104,
      "6091": 5105,
      "5700": 5106,
      "bacc": 5107,
      "eddf": 5108,
      "eadb": 5109,
      "7458": 5110,
      "efdf": 5111,
      "3495": 5112,
      "adcd": 5113,
      "6125": 5114,
      "7548": 5115,
      "2401": 5116,
      "2434": 5117,
      "2415": 5118,
      "6938": 5119,
      "6955": 5120,
      "2918": 5121,
      "ccfa": 5122,
      "afcd": 5123,
      "afcf": 5124,
      "afdf": 5125,
      "afdb": 5126,
      "bfdb": 5127,
      "ddff": 5128,
      "ddda": 5129,
      "aaff": 5130,
      "3605": 5131,
      "0894": 5132,
      "2238": 5133,
      "ebad": 5134,
      "fcff": 5135,
      "dbea": 5136,
      "dccf": 5137,
      "4200": 5138,
      "7470": 5139,
      "6411": 5140,
      "7915": 5141,
      "2949": 5142,
      "7108": 5143,
      "3978": 5144,
      "2895": 5145,
      "6665": 5146,
      "3665": 5147,
      "7726": 5148,
      "7200": 5149,
      "deca": 5150,
      "dabb": 5151,
      "2009": 5152,
      "edea": 5153,
      "edcf": 5154,
      "acff": 5155,
      "7355": 5156,
      "6158": 5157,
      "6484": 5158,
      "2581": 5159,
      "6831": 5160,
      "3945": 5161,
      "bdeb": 5162,
      "bfec": 5163,
      "bfda": 5164,
      "7626": 5165,
      "bbae": 5166,
      "3634": 5167,
      "6064": 5168,
      "cbcc": 5169,
      "fbbc": 5170,
      "cbfa": 5171,
      "dfda": 5172,
      "2048": 5173,
      "7584": 5174,
      "2914": 5175,
      "2988": 5176,
      "7155": 5177,
      "7838": 5178,
      "3964": 5179,
      "3940": 5180,
      "2873": 5181,
      "7671": 5182,
      "3228": 5183,
      "ceaf": 5184,
      "2001": 5185,
      "ceed": 5186,
      "2604": 5187,
      "2688": 5188,
      "7501": 5189,
      "7538": 5190,
      "7071": 5191,
      "2974": 5192,
      "3931": 5193,
      "3924": 5194,
      "2801": 5195,
      "2855": 5196,
      "afac": 5197,
      "abcd": 5198,
      "bfbd": 5199,
      "bcfd": 5200,
      "7664": 5201,
      "aaef": 5202,
      "7225": 5203,
      "beef": 5204,
      "baad": 5205,
      "babd": 5206,
      "cfec": 5207,
      "ebef": 5208,
      "6221": 5209,
      "dbef": 5210,
      "2411": 5211,
      "6425": 5212,
      "7078": 5213,
      "7091": 5214,
      "7973": 5215,
      "7978": 5216,
      "2905": 5217,
      "7185": 5218,
      "2858": 5219,
      "1200": 5220,
      "7700": 5221,
      "bbcf": 5222,
      "ceab": 5223,
      "dbda": 5224,
      "eeaf": 5225,
      "fbde": 5226,
      "ceea": 5227,
      "ceef": 5228,
      "2699": 5229,
      "eade": 5230,
      "7410": 5231,
      "3431": 5232,
      "3488": 5233,
      "3455": 5234,
      "acbc": 5235,
      "7325": 5236,
      "2445": 5237,
      "6901": 5238,
      "6961": 5239,
      "6435": 5240,
      "8431": 5241,
      "7101": 5242,
      "7164": 5243,
      "7855": 5244,
      "ffcf": 5245,
      "ffeb": 5246,
      "fffe": 5247,
      "3805": 5248,
      "eebc": 5249,
      "afad": 5250,
      "abea": 5251,
      "6604": 5252,
      "ddcc": 5253,
      "bbec": 5254,
      "bbee": 5255,
      "fdcb": 5256,
      "beea": 5257,
      "baac": 5258,
      "ebcc": 5259,
      "dbbd": 5260,
      "6701": 5261,
      "2648": 5262,
      "3435": 5263,
      "3498": 5264,
      "7369": 5265,
      "7318": 5266,
      "7505": 5267,
      "7555": 5268,
      "2549": 5269,
      "7079": 5270,
      "7038": 5271,
      "7958": 5272,
      "2148": 5273,
      "6891": 5274,
      "7104": 5275,
      "2868": 5276,
      "2888": 5277,
      "3631": 5278,
      "9024": 5279,
      "3784": 5280,
      "2784": 5281,
      "cbda": 5282,
      "cbcb": 5283,
      "fbae": 5284,
      "edcb": 5285,
      "edfa": 5286,
      "ceca": 5287,
      "7448": 5288,
      "7480": 5289,
      "acae": 5290,
      "2465": 5291,
      "2555": 5292,
      "2105": 5293,
      "6864": 5294,
      "7184": 5295,
      "ffdf": 5296,
      "bdac": 5297,
      "bdfb": 5298,
      "eebb": 5299,
      "afee": 5300,
      "afbc": 5301,
      "3094": 5302,
      "bbff": 5303,
      "cdca": 5304,
      "3626": 5305,
      "cfad": 5306,
      "dfef": 5307,
      "cbec": 5308,
      "ebac": 5309,
      "fcea": 5310,
      "cadc": 5311,
      "eefb": 5312,
      "2644": 5313,
      "9944": 5314,
      "3460": 5315,
      "2458": 5316,
      "6984": 5317,
      "6948": 5318,
      "6454": 5319,
      "7049": 5320,
      "7965": 5321,
      "2955": 5322,
      "7898": 5323,
      "2874": 5324,
      "3664": 5325,
      "1164": 5326,
      "3221": 5327,
      "9061": 5328,
      "aeae": 5329,
      "fafc": 5330,
      "2661": 5331,
      "9904": 5332,
      "efad": 5333,
      "7338": 5334,
      "7388": 5335,
      "6114": 5336,
      "7558": 5337,
      "2518": 5338,
      "2138": 5339,
      "6838": 5340,
      "7199": 5341,
      "7195": 5342,
      "cced": 5343,
      "7804": 5344,
      "7805": 5345,
      "7815": 5346,
      "afab": 5347,
      "bfce": 5348,
      "bfee": 5349,
      "6639": 5350,
      "bcad": 5351,
      "bcfb": 5352,
      "ddec": 5353,
      "ddba": 5354,
      "bebd": 5355,
      "cfcd": 5356,
      "ebea": 5357,
      "ebff": 5358,
      "ebbd": 5359,
      "aade": 5360,
      "aedb": 5361,
      "fddf": 5362,
      "2035": 5363,
      "2050": 5364,
      "7481": 5365,
      "3461": 5366,
      "3479": 5367,
      "2438": 5368,
      "7024": 5369,
      "3588": 5370,
      "2915": 5371,
      "6855": 5372,
      "1894": 5373,
      "0914": 5374,
      "Ġ-->\",\"": 5375,
      "6200": 5376,
      "6700": 5377,
      "VVJHRU": 5378,
      "deaf": 5379,
      "2059": 5380,
      "7495": 5381,
      "efec": 5382,
      "efda": 5383,
      "3445": 5384,
      "adfd": 5385,
      "7598": 5386,
      "2451": 5387,
      "6935": 5388,
      "6440": 5389,
      "2598": 5390,
      "ccca": 5391,
      "ccdc": 5392,
      "7865": 5393,
      "2838": 5394,
      "2891": 5395,
      "afbf": 5396,
      "abbd": 5397,
      "dded": 5398,
      "aabd": 5399,
      "9504": 5400,
      "cdec": 5401,
      "cdbf": 5402,
      "fdad": 5403,
      "3684": 5404,
      "cfab": 5405,
      "0814": 5406,
      "3331": 5407,
      "3338": 5408,
      "aeba": 5409,
      "dcea": 5410,
      "daed": 5411,
      "3724": 5412,
      "bedc": 5413,
      "fefa": 5414,
      "2018": 5415,
      "0185": 5416,
      "9965": 5417,
      "7405": 5418,
      "3418": 5419,
      "3409": 5420,
      "7540": 5421,
      "2455": 5422,
      "2571": 5423,
      "8455": 5424,
      "6854": 5425,
      "3949": 5426,
      "3099": 5427,
      "cacd": 5428,
      "deab": 5429,
      "ebba": 5430,
      "2030": 5431,
      "2098": 5432,
      "eaca": 5433,
      "cefc": 5434,
      "cefa": 5435,
      "2691": 5436,
      "2619": 5437,
      "9973": 5438,
      "7464": 5439,
      "efcc": 5440,
      "effb": 5441,
      "6535": 5442,
      "3481": 5443,
      "adac": 5444,
      "6155": 5445,
      "2430": 5446,
      "2498": 5447,
      "3584": 5448,
      "2973": 5449,
      "7858": 5450,
      "3965": 5451,
      "ffff": 5452,
      "bdbf": 5453,
      "bdfe": 5454,
      "abbb": 5455,
      "bcaf": 5456,
      "bcbe": 5457,
      "bcba": 5458,
      "dddf": 5459,
      "bbbe": 5460,
      "1105": 5461,
      "debc": 5462,
      "ebce": 5463,
      "fadf": 5464,
      "ebfb": 5465,
      "fcdf": 5466,
      "2091": 5467,
      "2684": 5468,
      "9935": 5469,
      "6501": 5470,
      "7519": 5471,
      "7549": 5472,
      "2492": 5473,
      "2928": 5474,
      "2938": 5475,
      "6869": 5476,
      "6805": 5477,
      "7161": 5478,
      "7899": 5479,
      "7276": 5480,
      "3364": 5481,
      "6228": 5482,
      "8905": 5483,
      "bbcd": 5484,
      "deeb": 5485,
      "dbeb": 5486,
      "2031": 5487,
      "edfd": 5488,
      "edae": 5489,
      "eddc": 5490,
      "ecbf": 5491,
      "ecfc": 5492,
      "7476": 5493,
      "7441": 5494,
      "3442": 5495,
      "7315": 5496,
      "7535": 5497,
      "2528": 5498,
      "2931": 5499,
      "ccab": 5500,
      "2869": 5501,
      "3098": 5502,
      "bcce": 5503,
      "bcab": 5504,
      "baab": 5505,
      "7799": 5506,
      "6054": 5507,
      "caac": 5508,
      "daef": 5509,
      "daff": 5510,
      "2771": 5511,
      "eedb": 5512,
      "badc": 5513,
      "2081": 5514,
      "6538": 5515,
      "2473": 5516,
      "2446": 5517,
      "8445": 5518,
      "7026": 5519,
      "7031": 5520,
      "7955": 5521,
      "7111": 5522,
      "3039": 5523,
      "7634": 5524,
      "7274": 5525,
      "3368": 5526,
      "2364": 5527,
      "cbba": 5528,
      "ebdd": 5529,
      "fbcf": 5530,
      "fecb": 5531,
      "eaad": 5532,
      "eaaa": 5533,
      "cebf": 5534,
      "eadf": 5535,
      "0154": 5536,
      "3414": 5537,
      "3138": 5538,
      "6941": 5539,
      "2511": 5540,
      "7961": 5541,
      "0499": 5542,
      "ccbd": 5543,
      "3915": 5544,
      "ffda": 5545,
      "afaf": 5546,
      "bfbb": 5547,
      "6661": 5548,
      "cdab": 5549,
      "cfeb": 5550,
      "deef": 5551,
      "fbcc": 5552,
      "dcff": 5553,
      "bedf": 5554,
      "aadb": 5555,
      "fedb": 5556,
      "fefc": 5557,
      "\":\"]]></": 5558,
      "2049": 5559,
      "9931": 5560,
      "9945": 5561,
      "6555": 5562,
      "7581": 5563,
      "3104": 5564,
      "8461": 5565,
      "8438": 5566,
      "7048": 5567,
      "2118": 5568,
      "6888": 5569,
      "2898": 5570,
      "3001": 5571,
      "5604": 5572,
      "2700": 5573,
      "3200": 5574,
      "becf": 5575,
      "dabe": 5576,
      "eecf": 5577,
      "edab": 5578,
      "ceba": 5579,
      "2694": 5580,
      "9938": 5581,
      "3420": 5582,
      "acdb": 5583,
      "adbe": 5584,
      "6954": 5585,
      "8448": 5586,
      "7931": 5587,
      "7969": 5588,
      "2158": 5589,
      "2924": 5590,
      "2909": 5591,
      "7874": 5592,
      "ffec": 5593,
      "bdaa": 5594,
      "eebd": 5595,
      "afed": 5596,
      "3085": 5597,
      "bcaa": 5598,
      "bbac": 5599,
      "cdad": 5600,
      "fdcd": 5601,
      "dbaf": 5602,
      "cede": 5603,
      "eefd": 5604,
      "bbfe": 5605,
      "fccc": 5606,
      "fbfa": 5607,
      "2689": 5608,
      "7401": 5609,
      "3480": 5610,
      "7594": 5611,
      "6944": 5612,
      "2538": 5613,
      "7066": 5614,
      "7009": 5615,
      "3595": 5616,
      "7635": 5617,
      "7609": 5618,
      "8885": 5619,
      "3365": 5620,
      "3361": 5621,
      "2761": 5622,
      "4726": 5623,
      "beaf": 5624,
      "bafd": 5625,
      "cafb": 5626,
      "dafa": 5627,
      "2039": 5628,
      "eabf": 5629,
      "2605": 5630,
      "9905": 5631,
      "7440": 5632,
      "3405": 5633,
      "7395": 5634,
      "7568": 5635,
      "7590": 5636,
      "8468": 5637,
      "8405": 5638,
      "ccbc": 5639,
      "ccbb": 5640,
      "ccde": 5641,
      "7888": 5642,
      "eeee": 5643,
      "abce": 5644,
      "abaa": 5645,
      "3080": 5646,
      "bcdf": 5647,
      "ddef": 5648,
      "bbce": 5649,
      "aaee": 5650,
      "aece": 5651,
      "aeef": 5652,
      "cbce": 5653,
      "cbab": 5654,
      "cbaa": 5655,
      "fcbb": 5656,
      "fbec": 5657,
      "faee": 5658,
      "3768": 5659,
      "4094": 5660,
      "affd": 5661,
      "cedd": 5662,
      "dffb": 5663,
      "dccb": 5664,
      "0144": 5665,
      "7385": 5666,
      "7504": 5667,
      "6928": 5668,
      "6414": 5669,
      "7030": 5670,
      "7046": 5671,
      "2169": 5672,
      "2168": 5673,
      "2108": 5674,
      "2971": 5675,
      "2946": 5676,
      "3891": 5677,
      "7625": 5678,
      "6094": 5679,
      "3271": 5680,
      "6235": 5681,
      "6734": 5682,
      "2301": 5683,
      "2765": 5684,
      "8000": 5685,
      "aeab": 5686,
      "dbdc": 5687,
      "dbcb": 5688,
      "feaa": 5689,
      "2090": 5690,
      "eaed": 5691,
      "eaba": 5692,
      "ceec": 5693,
      "2665": 5694,
      "eadc": 5695,
      "acfb": 5696,
      "adcc": 5697,
      "adcf": 5698,
      "6126": 5699,
      "2405": 5700,
      "2409": 5701,
      "8495": 5702,
      "7081": 5703,
      "2135": 5704,
      "3545": 5705,
      "2941": 5706,
      "ffcd": 5707,
      "bddc": 5708,
      "abae": 5709,
      "3058": 5710,
      "ddeb": 5711,
      "8555": 5712,
      "7278": 5713,
      "7239": 5714,
      "cfef": 5715,
      "cfbc": 5716,
      "aeec": 5717,
      "7765": 5718,
      "cbed": 5719,
      "caec": 5720,
      "dbce": 5721,
      "faab": 5722,
      "1661": 5723,
      "eede": 5724,
      "bada": 5725,
      "fedd": 5726,
      "fcfa": 5727,
      "2655": 5728,
      "7471": 5729,
      "7450": 5730,
      "7451": 5731,
      "6561": 5732,
      "7580": 5733,
      "6401": 5734,
      "2595": 5735,
      "7093": 5736,
      "3838": 5737,
      "3071": 5738,
      "3674": 5739,
      "9854": 5740,
      "9885": 5741,
      "3299": 5742,
      "6301": 5743,
      "3799": 5744,
      "0631": 5745,
      "abdf": 5746,
      "aacb": 5747,
      "beaa": 5748,
      "caae": 5749,
      "feca": 5750,
      "fbcb": 5751,
      "fabf": 5752,
      "edbf": 5753,
      "0109": 5754,
      "7431": 5755,
      "efab": 5756,
      "3458": 5757,
      "3490": 5758,
      "acea": 5759,
      "7531": 5760,
      "2486": 5761,
      "6945": 5762,
      "2510": 5763,
      "2191": 5764,
      "2145": 5765,
      "2961": 5766,
      "ccdb": 5767,
      "7825": 5768,
      "2839": 5769,
      "2828": 5770,
      "ffae": 5771,
      "bfcc": 5772,
      "bcac": 5773,
      "ddcb": 5774,
      "7299": 5775,
      "bece": 5776,
      "3668": 5777,
      "cfbd": 5778,
      "9895": 5779,
      "cbee": 5780,
      "cabd": 5781,
      "ebed": 5782,
      "ebaf": 5783,
      "ebbf": 5784,
      "fcaa": 5785,
      "fbab": 5786,
      "dcbb": 5787,
      "befb": 5788,
      "befd": 5789,
      "bffc": 5790,
      "bffe": 5791,
      "bfff": 5792,
      "affb": 5793,
      "feda": 5794,
      "dedf": 5795,
      "ĠĠĠĠĠĠĠĠĠĠĠĠĠĠĠĠĠĠĠĠĠĠĠĠĠĠĠĠĠ": 5796,
      "1726": 5797,
      "2099": 5798,
      "2078": 5799,
      "2615": 5800,
      "2499": 5801,
      "6915": 5802,
      "6908": 5803,
      "8464": 5804,
      "7058": 5805,
      "7966": 5806,
      "7959": 5807,
      "3548": 5808,
      "2926": 5809,
      "7198": 5810,
      "3961": 5811,
      "2871": 5812,
      "7670": 5813,
      "6001": 5814,
      "aafe": 5815,
      "aafa": 5816,
      "babb": 5817,
      "cbdd": 5818,
      "fcec": 5819,
      "eaab": 5820,
      "3441": 5821,
      "accd": 5822,
      "adec": 5823,
      "adaf": 5824,
      "addc": 5825,
      "2481": 5826,
      "6904": 5827,
      "6951": 5828,
      "7940": 5829,
      "2860": 5830,
      "ffea": 5831,
      "3864": 5832,
      "afcc": 5833,
      "abfc": 5834,
      "3065": 5835,
      "3629": 5836,
      "3678": 5837,
      "baff": 5838,
      "cfce": 5839,
      "dece": 5840,
      "6371": 5841,
      "6284": 5842,
      "faac": 5843,
      "febf": 5844,
      "8604": 5845,
      "badb": 5846,
      "fedf": 5847,
      "eefc": 5848,
      "dffe": 5849,
      "defd": 5850,
      "cfdb": 5851,
      "7350": 5852,
      "8401": 5853,
      "2939": 5854,
      "6815": 5855,
      "3035": 5856,
      "6605": 5857,
      "7601": 5858,
      "7279": 5859,
      "3676": 5860,
      "7701": 5861,
      "6378": 5862,
      "6299": 5863,
      "8765": 5864,
      "aeaf": 5865,
      "abdd": 5866,
      "bbcb": 5867,
      "cafd": 5868,
      "dbdd": 5869,
      "dafd": 5870,
      "dcef": 5871,
      "fcee": 5872,
      "2011": 5873,
      "2635": 5874,
      "eada": 5875,
      "7474": 5876,
      "3449": 5877,
      "3459": 5878,
      "3440": 5879,
      "acaa": 5880,
      "adbc": 5881,
      "2421": 5882,
      "2435": 5883,
      "6981": 5884,
      "2541": 5885,
      "7911": 5886,
      "2930": 5887,
      "ccdf": 5888,
      "2811": 5889,
      "2881": 5890,
      "ffbf": 5891,
      "ffbc": 5892,
      "ffaa": 5893,
      "3855": 5894,
      "6671": 5895,
      "ddfc": 5896,
      "aaaa": 5897,
      "9555": 5898,
      "beba": 5899,
      "cfcc": 5900,
      "cfbb": 5901,
      "cfaa": 5902,
      "aebf": 5903,
      "dfae": 5904,
      "7768": 5905,
      "fcfd": 5906,
      "fcba": 5907,
      "1094": 5908,
      "faed": 5909,
      "2701": 5910,
      "2764": 5911,
      "4084": 5912,
      "badf": 5913,
      "aadd": 5914,
      "affa": 5915,
      "fefe": 5916,
      "eefa": 5917,
      "defe": 5918,
      "dcfb": 5919,
      "Ġ--\",\"": 5920,
      "2058": 5921,
      "2609": 5922,
      "7478": 5923,
      "3496": 5924,
      "6165": 5925,
      "3145": 5926,
      "2419": 5927,
      "2459": 5928,
      "7089": 5929,
      "7964": 5930,
      "7946": 5931,
      "2189": 5932,
      "2951": 5933,
      "3941": 5934,
      "3054": 5935,
      "0804": 5936,
      "3373": 5937,
      "6304": 5938,
      "abda": 5939,
      "bcec": 5940,
      "cacc": 5941,
      "ebdc": 5942,
      "eeaa": 5943,
      "fbdd": 5944,
      "fbba": 5945,
      "fbbe": 5946,
      "2051": 5947,
      "cecc": 5948,
      "2638": 5949,
      "2611": 5950,
      "ecca": 5951,
      "efbd": 5952,
      "efbc": 5953,
      "efbb": 5954,
      "acba": 5955,
      "adef": 5956,
      "7585": 5957,
      "2494": 5958,
      "6958": 5959,
      "6494": 5960,
      "2558": 5961,
      "2553": 5962,
      "7975": 5963,
      "7960": 5964,
      "2141": 5965,
      "2146": 5966,
      "ccbf": 5967,
      "3911": 5968,
      "2833": 5969,
      "bdee": 5970,
      "abfb": 5971,
      "3088": 5972,
      "bfde": 5973,
      "ddca": 5974,
      "ddfa": 5975,
      "cdeb": 5976,
      "fdbd": 5977,
      "cfba": 5978,
      "3384": 5979,
      "dfbf": 5980,
      "dbed": 5981,
      "daaf": 5982,
      "eedf": 5983,
      "befc": 5984,
      "bccd": 5985,
      "aefa": 5986,
      "dcca": 5987,
      "dbfd": 5988,
      "fccb": 5989,
      "\":\"{": 5990,
      "7411": 5991,
      "7399": 5992,
      "6194": 5993,
      "2449": 5994,
      "6988": 5995,
      "6441": 5996,
      "2515": 5997,
      "2509": 5998,
      "8498": 5999,
      "8409": 6000,
      "7938": 6001,
      "2950": 6002,
      "7811": 6003,
      "3975": 6004,
      "2818": 6005,
      "2806": 6006,
      "3894": 6007,
      "3021": 6008,
      "3059": 6009,
      "7608": 6010,
      "3323": 6011,
      "8154": 6012,
      "9384": 6013,
      "5238": 6014,
      "aabf": 6015,
      "aecd": 6016,
      "beac": 6017,
      "bacd": 6018,
      "ccec": 6019,
      "dbde": 6020,
      "dacd": 6021,
      "dabf": 6022,
      "dbbb": 6023,
      "ecef": 6024,
      "facc": 6025,
      "feab": 6026,
      "eacd": 6027,
      "2671": 6028,
      "0115": 6029,
      "ecfb": 6030,
      "6508": 6031,
      "3411": 6032,
      "3446": 6033,
      "acaf": 6034,
      "adcb": 6035,
      "7599": 6036,
      "7569": 6037,
      "3158": 6038,
      "2480": 6039,
      "2487": 6040,
      "6931": 6041,
      "6491": 6042,
      "7051": 6043,
      "2942": 6044,
      "6835": 6045,
      "7171": 6046,
      "cccd": 6047,
      "ffcc": 6048,
      "eece": 6049,
      "eeec": 6050,
      "afcb": 6051,
      "abfa": 6052,
      "7603": 6053,
      "bbab": 6054,
      "fdcc": 6055,
      "fdba": 6056,
      "fdca": 6057,
      "fdeb": 6058,
      "3608": 6059,
      "3328": 6060,
      "debe": 6061,
      "faec": 6062,
      "fefd": 6063,
      "cddc": 6064,
      "fddd": 6065,
      "ebfe": 6066,
      "dadd": 6067,
      "fcdb": 6068,
      "2060": 6069,
      "2685": 6070,
      "0155": 6071,
      "7490": 6072,
      "7443": 6073,
      "7413": 6074,
      "3422": 6075,
      "7380": 6076,
      "6488": 6077,
      "8435": 6078,
      "7041": 6079,
      "2153": 6080,
      "2965": 6081,
      "2983": 6082,
      "7808": 6083,
      "7803": 6084,
      "2810": 6085,
      "9594": 6086,
      "9505": 6087,
      "6338": 6088,
      "6225": 6089,
      "4085": 6090,
      "8304": 6091,
      "aecf": 6092,
      "aacd": 6093,
      "aacf": 6094,
      "aafb": 6095,
      "aeee": 6096,
      "ebcd": 6097,
      "fbeb": 6098,
      "2069": 6099,
      "eaea": 6100,
      "cefe": 6101,
      "9915": 6102,
      "7465": 6103,
      "efbe": 6104,
      "efae": 6105,
      "effc": 6106,
      "3465": 6107,
      "3466": 6108,
      "adeb": 6109,
      "6445": 6110,
      "2580": 6111,
      "2156": 6112,
      "2913": 6113,
      "2947": 6114,
      "6811": 6115,
      "7890": 6116,
      "3971": 6117,
      "ffab": 6118,
      "bdde": 6119,
      "3890": 6120,
      "6664": 6121,
      "bcae": 6122,
      "bcfc": 6123,
      "bcfe": 6124,
      "1235": 6125,
      "3624": 6126,
      "3635": 6127,
      "9154": 6128,
      "cfed": 6129,
      "3375": 6130,
      "6231": 6131,
      "dbee": 6132,
      "1054": 6133,
      "dcba": 6134,
      "5605": 6135,
      "8271": 6136,
      "befa": 6137,
      "bade": 6138,
      "aedd": 6139,
      "cddf": 6140,
      "fdde": 6141,
      "fadd": 6142,
      "cffc": 6143,
      "cffd": 6144,
      "defc": 6145,
      "dcfe": 6146,
      "2019": 6147,
      "2016": 6148,
      "2679": 6149,
      "0161": 6150,
      "7430": 6151,
      "3419": 6152,
      "6106": 6153,
      "2408": 6154,
      "2575": 6155,
      "8488": 6156,
      "8449": 6157,
      "7053": 6158,
      "7951": 6159,
      "2959": 6160,
      "7115": 6161,
      "7148": 6162,
      "3918": 6163,
      "3037": 6164,
      "9814": 6165,
      "9894": 6166,
      "ceaa": 6167,
      "cabf": 6168,
      "cbca": 6169,
      "dacc": 6170,
      "fbdf": 6171,
      "fbdb": 6172,
      "feac": 6173,
      "fecf": 6174,
      "eafa": 6175,
      "edde": 6176,
      "ecad": 6177,
      "ecbb": 6178,
      "ecbe": 6179,
      "7435": 6180,
      "7403": 6181,
      "efac": 6182,
      "efcb": 6183,
      "6554": 6184,
      "3469": 6185,
      "3423": 6186,
      "3451": 6187,
      "3407": 6188,
      "adee": 6189,
      "7326": 6190,
      "7328": 6191,
      "6131": 6192,
      "7515": 6193,
      "3141": 6194,
      "6442": 6195,
      "7902": 6196,
      "ccad": 6197,
      "ccae": 6198,
      "ccfe": 6199,
      "3985": 6200,
      "3981": 6201,
      "ffad": 6202,
      "fffc": 6203,
      "afbb": 6204,
      "afae": 6205,
      "bcbf": 6206,
      "ddbb": 6207,
      "cdea": 6208,
      "cdcb": 6209,
      "fdff": 6210,
      "fdfc": 6211,
      "cfca": 6212,
      "dfaf": 6213,
      "dfbc": 6214,
      "dfaa": 6215,
      "3238": 6216,
      "debd": 6217,
      "fbaa": 6218,
      "dcab": 6219,
      "9221": 6220,
      "aceb": 6221,
      "cedf": 6222,
      "cdda": 6223,
      "aefd": 6224,
      "dadc": 6225,
      "fcfc": 6226,
      "\":\"';": 6227,
      "\":\"<!--": 6228,
      "2086": 6229,
      "2601": 6230,
      "9918": 6231,
      "7421": 6232,
      "6591": 6233,
      "7359": 6234,
      "6946": 6235,
      "6431": 6236,
      "2535": 6237,
      "7908": 6238,
      "6830": 6239,
      "7105": 6240,
      "7119": 6241,
      "7881": 6242,
      "3869": 6243,
      "3084": 6244,
      "3284": 6245,
      "0964": 6246,
      "0905": 6247,
      "6324": 6248,
      "8661": 6249,
      "aeaa": 6250,
      "aabe": 6251,
      "bbdc": 6252,
      "cabb": 6253,
      "caca": 6254,
      "eeab": 6255,
      "ebae": 6256,
      "eecc": 6257,
      "faae": 6258,
      "fafa": 6259,
      "edad": 6260,
      "edcd": 6261,
      "edfe": 6262,
      "7469": 6263,
      "6575": 6264,
      "7375": 6265,
      "7384": 6266,
      "7390": 6267,
      "6164": 6268,
      "3148": 6269,
      "2448": 6270,
      "2410": 6271,
      "2551": 6272,
      "7043": 6273,
      "2143": 6274,
      "3504": 6275,
      "3904": 6276,
      "3956": 6277,
      "3081": 6278,
      "ddbe": 6279,
      "ddfb": 6280,
      "7622": 6281,
      "bbbd": 6282,
      "bbaa": 6283,
      "bbeb": 6284,
      "cdbd": 6285,
      "bebb": 6286,
      "3621": 6287,
      "baaf": 6288,
      "9184": 6289,
      "cfcf": 6290,
      "dfea": 6291,
      "dfbe": 6292,
      "debf": 6293,
      "caab": 6294,
      "dbab": 6295,
      "9085": 6296,
      "3770": 6297,
      "9301": 6298,
      "aadc": 6299,
      "fedc": 6300,
      "fefb": 6301,
      "cffb": 6302,
      "deff": 6303,
      "2080": 6304,
      "2096": 6305,
      "2631": 6306,
      "2649": 6307,
      "0194": 6308,
      "7356": 6309,
      "7589": 6310,
      "6438": 6311,
      "2599": 6312,
      "8458": 6313,
      "7135": 6314,
      "3960": 6315,
      "3910": 6316,
      "2880": 6317,
      "3888": 6318,
      "1299": 6319,
      "9414": 6320,
      "4415": 6321,
      "9194": 6322,
      "9860": 6323,
      "1854": 6324,
      "6784": 6325,
      "aeac": 6326,
      "bbde": 6327,
      "bafc": 6328,
      "beee": 6329,
      "cbcf": 6330,
      "cbbb": 6331,
      "decd": 6332,
      "daca": 6333,
      "eecb": 6334,
      "fbdc": 6335,
      "eacf": 6336,
      "cecb": 6337,
      "6598": 6338,
      "acfd": 6339,
      "adad": 6340,
      "3115": 6341,
      "2442": 6342,
      "2523": 6343,
      "7930": 6344,
      "7988": 6345,
      "7909": 6346,
      "6860": 6347,
      "7141": 6348,
      "3906": 6349,
      "2864": 6350,
      "2809": 6351,
      "3078": 6352,
      "3036": 6353,
      "3050": 6354,
      "5444": 6355,
      "bfcb": 6356,
      "0585": 6357,
      "cdfc": 6358,
      "3669": 6359,
      "cfac": 6360,
      "dfbb": 6361,
      "cbaf": 6362,
      "dbec": 6363,
      "dbaa": 6364,
      "fbce": 6365,
      "dcbd": 6366,
      "dcdd": 6367,
      "dcaa": 6368,
      "dcae": 6369,
      "5094": 6370,
      "2331": 6371,
      "badd": 6372,
      "aada": 6373,
      "fede": 6374,
      "cedb": 6375,
      "feff": 6376,
      "dedb": 6377,
      "dedc": 6378,
      "dfdf": 6379,
      "dcde": 6380,
      "2680": 6381,
      "7498": 6382,
      "3403": 6383,
      "7311": 6384,
      "6188": 6385,
      "2496": 6386,
      "6949": 6387,
      "0445": 6388,
      "7181": 6389,
      "7895": 6390,
      "3946": 6391,
      "2831": 6392,
      "2851": 6393,
      "7668": 6394,
      "8515": 6395,
      "1555": 6396,
      "4448": 6397,
      "9115": 6398,
      "7770": 6399,
      "2775": 6400,
      "2725": 6401,
      "8335": 6402,
      "8726": 6403,
      "bbdd": 6404,
      "babf": 6405,
      "babc": 6406,
      "dbae": 6407,
      "dbbe": 6408,
      "ebdb": 6409,
      "facf": 6410,
      "fabb": 6411,
      "eaff": 6412,
      "eaae": 6413,
      "edcc": 6414,
      "ceee": 6415,
      "ceeb": 6416,
      "2659": 6417,
      "0148": 6418,
      "ecfe": 6419,
      "6594": 6420,
      "3468": 6421,
      "acde": 6422,
      "7306": 6423,
      "8447": 6424,
      "7989": 6425,
      "2199": 6426,
      "2149": 6427,
      "3585": 6428,
      "2975": 6429,
      "2910": 6430,
      "2986": 6431,
      "7138": 6432,
      "bfdd": 6433,
      "6626": 6434,
      "6625": 6435,
      "cdfe": 6436,
      "fdef": 6437,
      "4445": 6438,
      "baee": 6439,
      "dfdd": 6440,
      "6098": 6441,
      "cbbc": 6442,
      "dcac": 6443,
      "dcaf": 6444,
      "dcbe": 6445,
      "feef": 6446,
      "feba": 6447,
      "9364": 6448,
      "1701": 6449,
      "1761": 6450,
      "cadf": 6451,
      "aedf": 6452,
      "ebfc": 6453,
      "dfdb": 6454,
      "\":\"\\\\": 6455,
      "Ġè¯·æī§è¡Įä»¥ä¸ĭæĵįä½ľ": 6456,
      "7442": 6457,
      "6565": 6458,
      "3499": 6459,
      "3470": 6460,
      "3462": 6461,
      "3410": 6462,
      "2919": 6463,
      "0459": 6464,
      "3023": 6465,
      "6601": 6466,
      "6638": 6467,
      "9188": 6468,
      "9198": 6469,
      "0800": 6470,
      "0915": 6471,
      "2284": 6472,
      "6335": 6473,
      "3764": 6474,
      "6721": 6475,
      "aacc": 6476,
      "aaba": 6477,
      "aecc": 6478,
      "bcee": 6479,
      "beeb": 6480,
      "baae": 6481,
      "cceb": 6482,
      "ebda": 6483,
      "ebcf": 6484,
      "ebeb": 6485,
      "faaa": 6486,
      "eabe": 6487,
      "edaa": 6488,
      "ecbd": 6489,
      "ecdb": 6490,
      "9901": 6491,
      "7419": 6492,
      "6590": 6493,
      "6541": 6494,
      "3489": 6495,
      "acab": 6496,
      "adba": 6497,
      "7371": 6498,
      "7521": 6499,
      "3155": 6500,
      "2589": 6501,
      "7021": 6502,
      "3509": 6503,
      "2940": 6504,
      "ccff": 6505,
      "7818": 6506,
      "3969": 6507,
      "2859": 6508,
      "3075": 6509,
      "5408": 6510,
      "bcde": 6511,
      "cdae": 6512,
      "8804": 6513,
      "6099": 6514,
      "3225": 6515,
      "cbff": 6516,
      "fbed": 6517,
      "beff": 6518,
      "bede": 6519,
      "cdde": 6520,
      "bcca": 6521,
      "aefb": 6522,
      "ĠĠĠĠĠĠĠĠĠĠĠĠĠĠĠĠĠĠĠĠĠĠĠĠĠĠĠĠĠĠĠĠĠĠĠĠĠĠĠĠĠĠ": 6523,
      "2052": 6524,
      "6584": 6525,
      "3475": 6526,
      "3438": 6527,
      "7398": 6528,
      "6161": 6529,
      "2485": 6530,
      "2119": 6531,
      "0485": 6532,
      "6870": 6533,
      "3984": 6534,
      "3938": 6535,
      "0094": 6536,
      "3038": 6537,
      "1891": 6538,
      "0938": 6539,
      "2231": 6540,
      "9099": 6541,
      "9084": 6542,
      "8399": 6543,
      "8664": 6544,
      "aeca": 6545,
      "beca": 6546,
      "cbdf": 6547,
      "cafe": 6548,
      "dceb": 6549,
      "dafb": 6550,
      "fafd": 6551,
      "feeb": 6552,
      "fecc": 6553,
      "2006": 6554,
      "cebd": 6555,
      "2695": 6556,
      "ecff": 6557,
      "efee": 6558,
      "efaf": 6559,
      "efdb": 6560,
      "accf": 6561,
      "adbd": 6562,
      "adab": 6563,
      "addf": 6564,
      "7336": 6565,
      "7351": 6566,
      "6969": 6567,
      "6468": 6568,
      "7090": 6569,
      "7042": 6570,
      "3555": 6571,
      "3549": 6572,
      "2943": 6573,
      "7158": 6574,
      "7149": 6575,
      "7143": 6576,
      "2819": 6577,
      "2850": 6578,
      "2896": 6579,
      "afdc": 6580,
      "6674": 6581,
      "6675": 6582,
      "bcbd": 6583,
      "bcbb": 6584,
      "1454": 6585,
      "1444": 6586,
      "dddd": 6587,
      "dddb": 6588,
      "7627": 6589,
      "7606": 6590,
      "aaeb": 6591,
      "dfec": 6592,
      "7777": 6593,
      "4095": 6594,
      "cada": 6595,
      "eeda": 6596,
      "bedd": 6597,
      "aeda": 6598,
      "cddb": 6599,
      "fada": 6600,
      "bbfa": 6601,
      "aeff": 6602,
      "cfff": 6603,
      "cbfd": 6604,
      "dede": 6605,
      "7308": 6606,
      "2417": 6607,
      "8433": 6608,
      "7040": 6609,
      "7972": 6610,
      "7919": 6611,
      "7956": 6612,
      "2193": 6613,
      "0454": 6614,
      "7126": 6615,
      "2878": 6616,
      "3060": 6617,
      "3097": 6618,
      "6660": 6619,
      "9164": 6620,
      "1805": 6621,
      "2225": 6622,
      "1384": 6623,
      "ĠĠĠĠĠĠĠĠĠĠĠĠĠĠĠĠĠĠĠĠĠĠĠĠĠĠ": 6624,
      "bbdb": 6625,
      "baba": 6626,
      "baaa": 6627,
      "ceac": 6628,
      "caaa": 6629,
      "deaa": 6630,
      "dbcd": 6631,
      "faca": 6632,
      "eabc": 6633,
      "edaf": 6634,
      "edda": 6635,
      "2675": 6636,
      "2658": 6637,
      "2651": 6638,
      "0125": 6639,
      "9907": 6640,
      "7402": 6641,
      "efea": 6642,
      "3456": 6643,
      "adaa": 6644,
      "7381": 6645,
      "6104": 6646,
      "6159": 6647,
      "7503": 6648,
      "3149": 6649,
      "2469": 6650,
      "2490": 6651,
      "2407": 6652,
      "2520": 6653,
      "2550": 6654,
      "2159": 6655,
      "2911": 6656,
      "2834": 6657,
      "ffca": 6658,
      "bdfd": 6659,
      "3801": 6660,
      "3096": 6661,
      "6624": 6662,
      "9415": 6663,
      "cdac": 6664,
      "cdfa": 6665,
      "fdac": 6666,
      "3639": 6667,
      "cfbe": 6668,
      "dfcc": 6669,
      "dfcd": 6670,
      "cbef": 6671,
      "cbbd": 6672,
      "fcbd": 6673,
      "fcdd": 6674,
      "dbbf": 6675,
      "fbff": 6676,
      "dabd": 6677,
      "3721": 6678,
      "8605": 6679,
      "acee": 6680,
      "bedb": 6681,
      "bffb": 6682,
      "bbfc": 6683,
      "fcca": 6684,
      "0199": 6685,
      "6595": 6686,
      "7310": 6687,
      "3188": 6688,
      "6959": 6689,
      "7083": 6690,
      "7002": 6691,
      "2131": 6692,
      "3575": 6693,
      "3511": 6694,
      "2969": 6695,
      "7128": 6696,
      "7834": 6697,
      "3090": 6698,
      "7223": 6699,
      "3606": 6700,
      "9815": 6701,
      "7720": 6702,
      "6325": 6703,
      "3761": 6704,
      "2734": 6705,
      "ĠĠĠĠĠĠĠĠĠĠĠĠĠĠĠĠĠĠĠĠĠĠĠ": 6706,
      "aabc": 6707,
      "aeeb": 6708,
      "bacb": 6709,
      "bafb": 6710,
      "cbde": 6711,
      "cacb": 6712,
      "cabc": 6713,
      "cafa": 6714,
      "dbdb": 6715,
      "dbcf": 6716,
      "daae": 6717,
      "daeb": 6718,
      "eeca": 6719,
      "ecee": 6720,
      "feaf": 6721,
      "cefb": 6722,
      "0184": 6723,
      "9950": 6724,
      "efca": 6725,
      "6505": 6726,
      "3154": 6727,
      "7070": 6728,
      "7981": 6729,
      "7943": 6730,
      "2110": 6731,
      "3515": 6732,
      "3508": 6733,
      "2917": 6734,
      "0455": 6735,
      "0458": 6736,
      "6875": 6737,
      "6884": 6738,
      "6890": 6739,
      "ccaf": 6740,
      "ccaa": 6741,
      "3861": 6742,
      "3898": 6743,
      "3858": 6744,
      "afaa": 6745,
      "afba": 6746,
      "afca": 6747,
      "abfe": 6748,
      "3069": 6749,
      "bfbe": 6750,
      "bcfa": 6751,
      "1448": 6752,
      "1239": 6753,
      "8505": 6754,
      "8894": 6755,
      "9162": 6756,
      "cfea": 6757,
      "1884": 6758,
      "cbac": 6759,
      "ebaa": 6760,
      "1985": 6761,
      "4804": 6762,
      "fbaf": 6763,
      "daac": 6764,
      "2328": 6765,
      "acef": 6766,
      "dffc": 6767,
      "dffd": 6768,
      "dfff": 6769,
      "fadb": 6770,
      "bbfb": 6771,
      "aefc": 6772,
      "dccc": 6773,
      "fcda": 6774,
      "fbfd": 6775,
      "ĠĠĠĠĠĠĠĠĠĠĠĠĠĠĠĠĠĠĠĠĠĠĠĠĠĠĠĠĠĠĠĠĠĠĠĠĠĠĠĠĠĠĠ": 6776,
      "2033": 6777,
      "2625": 6778,
      "6580": 6779,
      "3408": 6780,
      "7309": 6781,
      "7358": 6782,
      "7920": 6783,
      "2171": 6784,
      "3591": 6785,
      "2960": 6786,
      "7139": 6787,
      "7180": 6788,
      "7850": 6789,
      "7887": 6790,
      "3091": 6791,
      "1414": 6792,
      "8558": 6793,
      "7231": 6794,
      "9551": 6795,
      "2239": 6796,
      "6799": 6797,
      "5084": 6798,
      "8915": 6799,
      "9274": 6800,
      "aecb": 6801,
      "cbcd": 6802,
      "decb": 6803,
      "dafc": 6804,
      "deee": 6805,
      "eceb": 6806,
      "ebca": 6807,
      "fabe": 6808,
      "fbbb": 6809,
      "2045": 6810,
      "edfb": 6811,
      "2669": 6812,
      "ecdd": 6813,
      "effd": 6814,
      "acad": 6815,
      "adde": 6816,
      "7303": 6817,
      "6154": 6818,
      "3199": 6819,
      "3168": 6820,
      "2406": 6821,
      "6447": 6822,
      "7008": 6823,
      "7906": 6824,
      "0415": 6825,
      "7891": 6826,
      "7863": 6827,
      "2829": 6828,
      "afbe": 6829,
      "bfea": 6830,
      "bcda": 6831,
      "1494": 6832,
      "ddce": 6833,
      "ddbd": 6834,
      "ddaa": 6835,
      "ddae": 6836,
      "cdcf": 6837,
      "8888": 6838,
      "4444": 6839,
      "dfbd": 6840,
      "7729": 6841,
      "cbad": 6842,
      "ebee": 6843,
      "dbac": 6844,
      "dcad": 6845,
      "2375": 6846,
      "2369": 6847,
      "2368": 6848,
      "2338": 6849,
      "5761": 6850,
      "fadc": 6851,
      "bccf": 6852,
      "ebfa": 6853,
      "fcde": 6854,
      "0101": 6855,
      "9994": 6856,
      "6549": 6857,
      "3497": 6858,
      "2529": 6859,
      "2556": 6860,
      "7939": 6861,
      "7976": 6862,
      "7918": 6863,
      "7986": 6864,
      "0484": 6865,
      "7169": 6866,
      "7869": 6867,
      "3073": 6868,
      "3051": 6869,
      "5440": 6870,
      "6608": 6871,
      "0805": 6872,
      "3326": 6873,
      "7775": 6874,
      "6399": 6875,
      "9054": 6876,
      "6768": 6877,
      "2326": 6878,
      "4164": 6879,
      "8105": 6880,
      "8195": 6881,
      "4764": 6882,
      "ĠĠĠĠĠĠĠĠĠĠĠĠĠĠĠĠĠĠĠĠĠĠĠĠĠĠĠĠĠĠĠĠĠĠĠĠĠĠĠĠĠĠĠĠĠĠĠ": 6883,
      "bbdf": 6884,
      "bceb": 6885,
      "cbeb": 6886,
      "dacf": 6887,
      "ebcb": 6888,
      "facd": 6889,
      "faba": 6890,
      "edee": 6891,
      "edbb": 6892,
      "cebe": 6893,
      "2646": 6894,
      "0145": 6895,
      "ecaf": 6896,
      "7446": 6897,
      "efcd": 6898,
      "efeb": 6899,
      "effa": 6900,
      "effe": 6901,
      "3106": 6902,
      "2456": 6903,
      "2547": 6904,
      "8425": 6905,
      "7987": 6906,
      "2174": 6907,
      "2139": 6908,
      "2152": 6909,
      "2901": 6910,
      "cccc": 6911,
      "7870": 6912,
      "2893": 6913,
      "2883": 6914,
      "afea": 6915,
      "bcea": 6916,
      "ddea": 6917,
      "ddaf": 6918,
      "3670": 6919,
      "4458": 6920,
      "6384": 6921,
      "4865": 6922,
      "dbcc": 6923,
      "faff": 6924,
      "daab": 6925,
      "febe": 6926,
      "3771": 6927,
      "0364": 6928,
      "eefe": 6929,
      "aefe": 6930,
      "dada": 6931,
      "cfde": 6932,
      "cfdf": 6933,
      "dbfa": 6934,
      "fbfc": 6935,
      "dcdb": 6936,
      "dcfc": 6937,
      "fcfb": 6938,
      "ĠĠĠĠĠĠĠĠĠĠĠĠĠĠĠĠĠĠĠĠĠĠĠĠĠĠĠĠĠĠ": 6939,
      "2062": 6940,
      "2092": 6941,
      "2698": 6942,
      "0190": 6943,
      "7412": 6944,
      "6111": 6945,
      "3184": 6946,
      "3105": 6947,
      "2476": 6948,
      "2517": 6949,
      "7982": 6950,
      "2165": 6951,
      "2111": 6952,
      "3570": 6953,
      "3581": 6954,
      "2925": 6955,
      "0498": 6956,
      "7872": 6957,
      "7851": 6958,
      "2870": 6959,
      "3076": 6960,
      "5454": 6961,
      "6629": 6962,
      "1484": 6963,
      "0511": 6964,
      "0985": 6965,
      "4154": 6966,
      "7268": 6967,
      "beab": 6968,
      "deac": 6969,
      "dafe": 6970,
      "ebbe": 6971,
      "fbda": 6972,
      "2038": 6973,
      "edca": 6974,
      "0165": 6975,
      "ecdc": 6976,
      "9959": 6977,
      "7418": 6978,
      "efdc": 6979,
      "6585": 6980,
      "acdd": 6981,
      "adbf": 6982,
      "6199": 6983,
      "7570": 6984,
      "7551": 6985,
      "3191": 6986,
      "2441": 6987,
      "2416": 6988,
      "2402": 6989,
      "6975": 6990,
      "6960": 6991,
      "6950": 6992,
      "2128": 6993,
      "2198": 6994,
      "2163": 6995,
      "7133": 6996,
      "ccbe": 6997,
      "ccfc": 6998,
      "3968": 6999,
      "2865": 7000,
      "ffbe": 7001,
      "ffcb": 7002,
      "eeba": 7003,
      "3093": 7004,
      "bfca": 7005,
      "ddee": 7006,
      "0564": 7007,
      "cded": 7008,
      "cdee": 7009,
      "cdba": 7010,
      "fdfa": 7011,
      "3620": 7012,
      "3622": 7013,
      "0815": 7014,
      "aebe": 7015,
      "dfeb": 7016,
      "3226": 7017,
      "caee": 7018,
      "4894": 7019,
      "1004": 7020,
      "daee": 7021,
      "fece": 7022,
      "4101": 7023,
      "8914": 7024,
      "8368": 7025,
      "1364": 7026,
      "5784": 7027,
      "ebfd": 7028,
      "dfde": 7029,
      "fccf": 7030,
      "9948": 7031,
      "7493": 7032,
      "7406": 7033,
      "6504": 7034,
      "3487": 7035,
      "7391": 7036,
      "7546": 7037,
      "6485": 7038,
      "2513": 7039,
      "8426": 7040,
      "8415": 7041,
      "3526": 7042,
      "3580": 7043,
      "6853": 7044,
      "7170": 7045,
      "7162": 7046,
      "7146": 7047,
      "7819": 7048,
      "3908": 7049,
      "3066": 7050,
      "9559": 7051,
      "9114": 7052,
      "6068": 7053,
      "6062": 7054,
      "3272": 7055,
      "9091": 7056,
      "3729": 7057,
      "6728": 7058,
      "8985": 7059,
      "5114": 7060,
      "5284": 7061,
      "ĠĠĠĠĠĠĠĠĠĠĠĠĠĠĠĠĠĠĠĠĠĠĠĠĠĠĠĠĠĠĠĠĠ": 7062,
      "abdc": 7063,
      "bcef": 7064,
      "beae": 7065,
      "baca": 7066,
      "dbdf": 7067,
      "dbca": 7068,
      "fecd": 7069,
      "eafc": 7070,
      "edbe": 7071,
      "ecce": 7072,
      "eccd": 7073,
      "ecde": 7074,
      "7455": 7075,
      "7422": 7076,
      "3478": 7077,
      "3416": 7078,
      "7319": 7079,
      "6118": 7080,
      "6143": 7081,
      "3159": 7082,
      "6953": 7083,
      "6452": 7084,
      "2526": 7085,
      "8480": 7086,
      "7957": 7087,
      "2150": 7088,
      "6818": 7089,
      "cccf": 7090,
      "3912": 7091,
      "2892": 7092,
      "ffbd": 7093,
      "bdbc": 7094,
      "bddb": 7095,
      "abff": 7096,
      "abba": 7097,
      "abca": 7098,
      "5441": 7099,
      "bfbc": 7100,
      "0514": 7101,
      "bbbf": 7102,
      "bbbb": 7103,
      "cdbb": 7104,
      "fdbc": 7105,
      "cfee": 7106,
      "cfaf": 7107,
      "3369": 7108,
      "dfac": 7109,
      "3275": 7110,
      "3277": 7111,
      "cbbf": 7112,
      "1954": 7113,
      "dced": 7114,
      "6724": 7115,
      "8194": 7116,
      "4299": 7117,
      "0226": 7118,
      "befe": 7119,
      "cedc": 7120,
      "cddd": 7121,
      "bccc": 7122,
      "cffa": 7123,
      "cbfe": 7124,
      "dbfe": 7125,
      "==\"}}": 7126,
      "ĠĠĠĠĠĠĠĠĠĠĠĠĠĠ": 7127,
      "ĠĠĠĠĠĠĠĠĠĠĠĠĠĠĠĠĠĠĠĠĠĠĠĠĠ": 7128,
      "2653": 7129,
      "7466": 7130,
      "7477": 7131,
      "7409": 7132,
      "7453": 7133,
      "6573": 7134,
      "6587": 7135,
      "7378": 7136,
      "7362": 7137,
      "6101": 7138,
      "6198": 7139,
      "3181": 7140,
      "6499": 7141,
      "8491": 7142,
      "7977": 7143,
      "7983": 7144,
      "7903": 7145,
      "2147": 7146,
      "3598": 7147,
      "3510": 7148,
      "3550": 7149,
      "0414": 7150,
      "0494": 7151,
      "6808": 7152,
      "7191": 7153,
      "9518": 7154,
      "8831": 7155,
      "0854": 7156,
      "1895": 7157,
      "7778": 7158,
      "2229": 7159,
      "6238": 7160,
      "1084": 7161,
      "6778": 7162,
      "2799": 7163,
      "9601": 7164,
      "ĠĠĠĠĠĠĠĠĠĠĠĠĠĠĠĠĠĠĠĠĠĠĠĠĠĠĠĠĠĠĠĠĠĠ": 7165,
      "abde": 7166,
      "becb": 7167,
      "bafa": 7168,
      "cbdb": 7169,
      "decc": 7170,
      "fcef": 7171,
      "7425": 7172,
      "7459": 7173,
      "7407": 7174,
      "efed": 7175,
      "efcf": 7176,
      "6525": 7177,
      "6184": 7178,
      "6148": 7179,
      "6180": 7180,
      "7913": 7181,
      "2151": 7182,
      "2102": 7183,
      "2187": 7184,
      "2957": 7185,
      "7150": 7186,
      "ccce": 7187,
      "ccda": 7188,
      "2826": 7189,
      "2832": 7190,
      "ffba": 7191,
      "3895": 7192,
      "abee": 7193,
      "3061": 7194,
      "bfaf": 7195,
      "7233": 7196,
      "cdaa": 7197,
      "fdab": 7198,
      "baeb": 7199,
      "deba": 7200,
      "fcce": 7201,
      "face": 7202,
      "cadb": 7203,
      "cade": 7204,
      "afff": 7205,
      "ceda": 7206,
      "fddc": 7207,
      "dade": 7208,
      "9924": 7209,
      "3401": 7210,
      "6128": 7211,
      "7596": 7212,
      "3156": 7213,
      "2587": 7214,
      "7060": 7215,
      "7933": 7216,
      "7950": 7217,
      "2160": 7218,
      "3531": 7219,
      "3547": 7220,
      "2980": 7221,
      "3988": 7222,
      "3950": 7223,
      "3875": 7224,
      "3089": 7225,
      "6678": 7226,
      "1415": 7227,
      "7629": 7228,
      "0504": 7229,
      "9501": 7230,
      "9519": 7231,
      "1154": 7232,
      "1194": 7233,
      "2220": 7234,
      "9060": 7235,
      "3775": 7236,
      "2384": 7237,
      "ĠĠĠĠĠĠĠĠĠĠĠĠĠĠĠĠĠĠĠĠĠĠ": 7238,
      "ĠĠĠĠĠĠĠĠĠĠĠĠĠĠĠĠĠĠĠĠĠĠĠĠĠĠĠĠĠĠĠĠĠĠĠĠĠĠĠĠĠĠĠĠĠĠĠĠĠ": 7239,
      "aaca": 7240,
      "ccef": 7241,
      "ccee": 7242,
      "cbbe": 7243,
      "eecd": 7244,
      "fceb": 7245,
      "fabc": 7246,
      "ĠÐŁÐ¾Ð¶Ð°Ð»ÑĥÐ¹ÑģÑĤÐ°": 7247,
      "2012": 7248,
      "2046": 7249,
      "2047": 7250,
      "eaaf": 7251,
      "eafb": 7252,
      "edba": 7253,
      "cebb": 7254,
      "7483": 7255,
      "3402": 7256,
      "adce": 7257,
      "addb": 7258,
      "adfe": 7259,
      "3111": 7260,
      "6918": 7261,
      "6449": 7262,
      "2190": 7263,
      "2981": 7264,
      "0438": 7265,
      "0488": 7266,
      "6801": 7267,
      "6802": 7268,
      "7151": 7269,
      "ccfb": 7270,
      "ffee": 7271,
      "bdce": 7272,
      "bdcb": 7273,
      "3809": 7274,
      "3810": 7275,
      "3025": 7276,
      "bfed": 7277,
      "ddcf": 7278,
      "7677": 7279,
      "bbad": 7280,
      "9584": 7281,
      "9514": 7282,
      "fdec": 7283,
      "fdee": 7284,
      "fdfb": 7285,
      "cfae": 7286,
      "6326": 7287,
      "5185": 7288,
      "0664": 7289,
      "cadd": 7290,
      "eedd": 7291,
      "aede": 7292,
      "eeff": 7293,
      "cffe": 7294,
      "fbfb": 7295,
      "fbfe": 7296,
      "dcdc": 7297,
      "3428": 7298,
      "3450": 7299,
      "7393": 7300,
      "7536": 7301,
      "3131": 7302,
      "2436": 7303,
      "2542": 7304,
      "8475": 7305,
      "7084": 7306,
      "7006": 7307,
      "7927": 7308,
      "2181": 7309,
      "3561": 7310,
      "6828": 7311,
      "7125": 7312,
      "7142": 7313,
      "3942": 7314,
      "3083": 7315,
      "7636": 7316,
      "7230": 7317,
      "1599": 7318,
      "1138": 7319,
      "1110": 7320,
      "3239": 7321,
      "becd": 7322,
      "cead": 7323,
      "cabe": 7324,
      "caba": 7325,
      "dabc": 7326,
      "facb": 7327,
      "2034": 7328,
      "eabb": 7329,
      "2641": 7330,
      "ecda": 7331,
      "9998": 7332,
      "efff": 7333,
      "acce": 7334,
      "acbf": 7335,
      "acfc": 7336,
      "addd": 7337,
      "7382": 7338,
      "6145": 7339,
      "6409": 7340,
      "2935": 7341,
      "0440": 7342,
      "0480": 7343,
      "7190": 7344,
      "7893": 7345,
      "0054": 7346,
      "abeb": 7347,
      "3033": 7348,
      "6673": 7349,
      "6668": 7350,
      "bcbc": 7351,
      "ddbf": 7352,
      "7620": 7353,
      "0505": 7354,
      "cdcc": 7355,
      "fdaa": 7356,
      "6035": 7357,
      "3270": 7358,
      "2236": 7359,
      "1914": 7360,
      "4831": 7361,
      "9235": 7362,
      "9764": 7363,
      "bffa": 7364,
      "dadb": 7365,
      "fcdc": 7366,
      "4640": 7367,
      "6344": 7368,
      "2053": 7369,
      "2696": 7370,
      "9988": 7371,
      "7449": 7372,
      "7447": 7373,
      "3101": 7374,
      "3109": 7375,
      "6930": 7376,
      "8490": 7377,
      "7921": 7378,
      "7932": 7379,
      "2162": 7380,
      "3564": 7381,
      "7809": 7382,
      "3980": 7383,
      "3953": 7384,
      "2886": 7385,
      "2807": 7386,
      "5465": 7387,
      "1273": 7388,
      "9484": 7389,
      "9538": 7390,
      "8815": 7391,
      "0801": 7392,
      "1199": 7393,
      "6270": 7394,
      "6765": 7395,
      "2370": 7396,
      "7261": 7397,
      "ĠĠĠĠĠĠĠĠĠĠĠĠĠĠĠĠĠĠĠĠĠĠĠĠĠĠĠ": 7398,
      "faeb": 7399,
      "2087": 7400,
      "edeb": 7401,
      "0126": 7402,
      "efde": 7403,
      "3436": 7404,
      "3146": 7405,
      "2423": 7406,
      "2489": 7407,
      "6966": 7408,
      "6980": 7409,
      "6916": 7410,
      "2512": 7411,
      "8420": 7412,
      "3501": 7413,
      "0449": 7414,
      "6850": 7415,
      "7871": 7416,
      "3903": 7417,
      "3987": 7418,
      "2825": 7419,
      "2890": 7420,
      "2889": 7421,
      "bdca": 7422,
      "afec": 7423,
      "abcc": 7424,
      "3026": 7425,
      "3057": 7426,
      "bfeb": 7427,
      "9588": 7428,
      "1598": 7429,
      "3637": 7430,
      "1814": 7431,
      "1860": 7432,
      "dfce": 7433,
      "dfee": 7434,
      "7728": 7435,
      "1938": 7436,
      "fbac": 7437,
      "1091": 7438,
      "dcce": 7439,
      "daec": 7440,
      "feec": 7441,
      "8198": 7442,
      "1608": 7443,
      "acec": 7444,
      "dffa": 7445,
      "defb": 7446,
      "dadf": 7447,
      "dfdc": 7448,
      "fccd": 7449,
      "fcfe": 7450,
      "ĠĠĠĠĠĠĠĠĠĠĠĠĠĠĠĠĠĠĠĠĠĠĠĠĠĠĠĠĠĠĠ": 7451,
      "ĠĠĠĠĠĠĠĠĠĠĠĠĠĠĠĠĠĠĠĠĠ": 7452,
      "2082": 7453,
      "2629": 7454,
      "9964": 7455,
      "3443": 7456,
      "6146": 7457,
      "2483": 7458,
      "2570": 7459,
      "8440": 7460,
      "7916": 7461,
      "7947": 7462,
      "0491": 7463,
      "0481": 7464,
      "6858": 7465,
      "7159": 7466,
      "7113": 7467,
      "7826": 7468,
      "3943": 7469,
      "2827": 7470,
      "3899": 7471,
      "3851": 7472,
      "5405": 7473,
      "5458": 7474,
      "6609": 7475,
      "4464": 7476,
      "0835": 7477,
      "9831": 7478,
      "9811": 7479,
      "9331": 7480,
      "6844": 7481,
      "aafc": 7482,
      "fbca": 7483,
      "eddb": 7484,
      "2683": 7485,
      "0114": 7486,
      "ecba": 7487,
      "9970": 7488,
      "7473": 7489,
      "7436": 7490,
      "6560": 7491,
      "adda": 7492,
      "7509": 7493,
      "7523": 7494,
      "7543": 7495,
      "6942": 7496,
      "7923": 7497,
      "3541": 7498,
      "0411": 7499,
      "6885": 7500,
      "7120": 7501,
      "7830": 7502,
      "7860": 7503,
      "ffce": 7504,
      "ffdd": 7505,
      "3825": 7506,
      "eeeb": 7507,
      "5445": 7508,
      "6633": 7509,
      "1278": 7510,
      "9405": 7511,
      "7630": 7512,
      "7676": 7513,
      "cdce": 7514,
      "3623": 7515,
      "1135": 7516,
      "6026": 7517,
      "debb": 7518,
      "1924": 7519,
      "dbff": 7520,
      "8908": 7521,
      "7264": 7522,
      "fdda": 7523,
      "fddb": 7524,
      "fade": 7525,
      "ĠĠĠĠĠĠĠĠĠĠĠĠĠĠĠĠĠĠĠĠĠĠĠĠĠĠĠĠĠĠĠĠĠĠĠĠĠĠĠĠĠĠĠĠĠĠ": 7526,
      "4738": 7527,
      "2005": 7528,
      "3467": 7529,
      "6926": 7530,
      "6940": 7531,
      "2591": 7532,
      "8462": 7533,
      "7059": 7534,
      "7926": 7535,
      "7970": 7536,
      "2178": 7537,
      "6817": 7538,
      "2872": 7539,
      "2803": 7540,
      "2817": 7541,
      "2852": 7542,
      "5431": 7543,
      "9515": 7544,
      "8814": 7545,
      "8818": 7546,
      "4414": 7547,
      "2226": 7548,
      "4584": 7549,
      "4554": 7550,
      "1964": 7551,
      "6224": 7552,
      "4074": 7553,
      "8094": 7554,
      "8139": 7555,
      "4701": 7556,
      "bacf": 7557,
      "bafe": 7558,
      "cbae": 7559,
      "deae": 7560,
      "dcee": 7561,
      "eeae": 7562,
      "ecec": 7563,
      "ebbb": 7564,
      "feae": 7565,
      "2686": 7566,
      "0158": 7567,
      "7427": 7568,
      "6532": 7569,
      "acbb": 7570,
      "adca": 7571,
      "7302": 7572,
      "7506": 7573,
      "3178": 7574,
      "2467": 7575,
      "2552": 7576,
      "7910": 7577,
      "2109": 7578,
      "2137": 7579,
      "3557": 7580,
      "2912": 7581,
      "7112": 7582,
      "7827": 7583,
      "3909": 7584,
      "2812": 7585,
      "2836": 7586,
      "0055": 7587,
      "bdae": 7588,
      "bfad": 7589,
      "bcdb": 7590,
      "ddbc": 7591,
      "aaea": 7592,
      "8594": 7593,
      "fdcf": 7594,
      "fdfe": 7595,
      "0861": 7596,
      "0884": 7597,
      "aeed": 7598,
      "dfcf": 7599,
      "dfca": 7600,
      "3236": 7601,
      "cace": 7602,
      "fcaf": 7603,
      "fcbe": 7604,
      "4115": 7605,
      "7650": 7606,
      "3842": 7607,
      "aedc": 7608,
      "ĠĠĠĠĠĠĠĠĠĠĠĠĠĠĠĠĠĠĠĠĠĠĠĠĠĠĠĠĠĠĠĠĠĠĠ": 7609,
      "ĠĠĠĠĠĠĠĠĠĠĠĠĠĠĠ": 7610,
      "2029": 7611,
      "9939": 7612,
      "7424": 7613,
      "6518": 7614,
      "3434": 7615,
      "3406": 7616,
      "7363": 7617,
      "7518": 7618,
      "7560": 7619,
      "7556": 7620,
      "3110": 7621,
      "6443": 7622,
      "6492": 7623,
      "2586": 7624,
      "7022": 7625,
      "7047": 7626,
      "7937": 7627,
      "2121": 7628,
      "2132": 7629,
      "7130": 7630,
      "7109": 7631,
      "7883": 7632,
      "3860": 7633,
      "9459": 7634,
      "7673": 7635,
      "7632": 7636,
      "8595": 7637,
      "8854": 7638,
      "8891": 7639,
      "4485": 7640,
      "0895": 7641,
      "9875": 7642,
      "9805": 7643,
      "7773": 7644,
      "7769": 7645,
      "7766": 7646,
      "6085": 7647,
      "3231": 7648,
      "2278": 7649,
      "4091": 7650,
      "8001": 7651,
      "5194": 7652,
      "9604": 7653,
      "5384": 7654,
      "4258": 7655,
      "babe": 7656,
      "daaa": 7657,
      "fbcd": 7658,
      "2690": 7659,
      "0111": 7660,
      "7452": 7661,
      "3171": 7662,
      "3196": 7663,
      "2560": 7664,
      "8459": 7665,
      "7963": 7666,
      "6824": 7667,
      "6881": 7668,
      "6851": 7669,
      "7156": 7670,
      "7117": 7671,
      "ccea": 7672,
      "7820": 7673,
      "abaf": 7674,
      "5414": 7675,
      "6669": 7676,
      "6676": 7677,
      "6627": 7678,
      "ddde": 7679,
      "7639": 7680,
      "7273": 7681,
      "9898": 7682,
      "aebb": 7683,
      "7772": 7684,
      "4988": 7685,
      "1625": 7686,
      "8301": 7687,
      "8699": 7688,
      "4270": 7689,
      "9226": 7690,
      "bffd": 7691,
      "ĠĠĠĠĠĠĠĠĠĠĠĠĠĠĠĠĠĠĠĠĠĠĠĠĠĠĠĠĠĠĠĠĠĠĠĠĠĠĠ": 7692,
      "2013": 7693,
      "9955": 7694,
      "7462": 7695,
      "7492": 7696,
      "6531": 7697,
      "3437": 7698,
      "7329": 7699,
      "7510": 7700,
      "2418": 7701,
      "2463": 7702,
      "2413": 7703,
      "6909": 7704,
      "2172": 7705,
      "3540": 7706,
      "7822": 7707,
      "7813": 7708,
      "0064": 7709,
      "3070": 7710,
      "5404": 7711,
      "8514": 7712,
      "9191": 7713,
      "0828": 7714,
      "1864": 7715,
      "7779": 7716,
      "0900": 7717,
      "1988": 7718,
      "4890": 7719,
      "5814": 7720,
      "2335": 7721,
      "8114": 7722,
      "9300": 7723,
      "9338": 7724,
      "7267": 7725,
      "0701": 7726,
      "9714": 7727,
      "daba": 7728,
      "2643": 7729,
      "0138": 7730,
      "ecfa": 7731,
      "9989": 7732,
      "7428": 7733,
      "6556": 7734,
      "7333": 7735,
      "7541": 7736,
      "2590": 7737,
      "8400": 7738,
      "8486": 7739,
      "3546": 7740,
      "2952": 7741,
      "7174": 7742,
      "7140": 7743,
      "3926": 7744,
      "0005": 7745,
      "3813": 7746,
      "afeb": 7747,
      "abbc": 7748,
      "3079": 7749,
      "3067": 7750,
      "7628": 7751,
      "7637": 7752,
      "bbbc": 7753,
      "1505": 7754,
      "cdbe": 7755,
      "8880": 7756,
      "4443": 7757,
      "9185": 7758,
      "3366": 7759,
      "aeea": 7760,
      "cbea": 7761,
      "fcbf": 7762,
      "1088": 7763,
      "9095": 7764,
      "5161": 7765,
      "0665": 7766,
      "9761": 7767,
      "0761": 7768,
      "5799": 7769,
      "beda": 7770,
      "aadf": 7771,
      "3848": 7772,
      "3018": 7773,
      "dbfb": 7774,
      "dcda": 7775,
      "dcfa": 7776,
      "ĠĠĠĠĠĠĠĠĠĠĠĠĠĠĠĠĠĠĠĠĠĠĠĠĠĠĠĠĠĠĠĠĠĠĠĠĠĠĠĠĠĠĠĠĠ": 7777,
      "2032": 7778,
      "2622": 7779,
      "2697": 7780,
      "0118": 7781,
      "7439": 7782,
      "6510": 7783,
      "6527": 7784,
      "6546": 7785,
      "6169": 7786,
      "7508": 7787,
      "3180": 7788,
      "6903": 7789,
      "6481": 7790,
      "6403": 7791,
      "2519": 7792,
      "2567": 7793,
      "8470": 7794,
      "8411": 7795,
      "2173": 7796,
      "0403": 7797,
      "6889": 7798,
      "7186": 7799,
      "7816": 7800,
      "7807": 7801,
      "3835": 7802,
      "5491": 7803,
      "1401": 7804,
      "3628": 7805,
      "3632": 7806,
      "0829": 7807,
      "5594": 7808,
      "4599": 7809,
      "1915": 7810,
      "5854": 7811,
      "9094": 7812,
      "4001": 7813,
      "8954": 7814,
      "5334": 7815,
      "4291": 7816,
      "abdb": 7817,
      "bbda": 7818,
      "becc": 7819,
      "ceae": 7820,
      "cafc": 7821,
      "dacb": 7822,
      "2063": 7823,
      "2089": 7824,
      "acbe": 7825,
      "adff": 7826,
      "6138": 7827,
      "7512": 7828,
      "2525": 7829,
      "2532": 7830,
      "7073": 7831,
      "7062": 7832,
      "7952": 7833,
      "2166": 7834,
      "2180": 7835,
      "2107": 7836,
      "3574": 7837,
      "3560": 7838,
      "2956": 7839,
      "0424": 7840,
      "6839": 7841,
      "6896": 7842,
      "7166": 7843,
      "7118": 7844,
      "7187": 7845,
      "3902": 7846,
      "3831": 7847,
      "3881": 7848,
      "afde": 7849,
      "abbe": 7850,
      "3082": 7851,
      "ddfe": 7852,
      "1231": 7853,
      "8591": 7854,
      "cdfb": 7855,
      "fdce": 7856,
      "fdbe": 7857,
      "3630": 7858,
      "0821": 7859,
      "9834": 7860,
      "1114": 7861,
      "6088": 7862,
      "4518": 7863,
      "fcad": 7864,
      "5099": 7865,
      "2321": 7866,
      "4105": 7867,
      "5399": 7868,
      "5769": 7869,
      "bbfd": 7870,
      "bccb": 7871,
      "cbfc": 7872,
      "cfdc": 7873,
      "7990": 7874,
      "dedd": 7875,
      "6539": 7876,
      "7387": 7877,
      "6172": 7878,
      "6913": 7879,
      "2566": 7880,
      "2503": 7881,
      "8465": 7882,
      "8484": 7883,
      "7075": 7884,
      "7917": 7885,
      "2963": 7886,
      "0416": 7887,
      "0446": 7888,
      "6820": 7889,
      "7147": 7890,
      "7882": 7891,
      "3913": 7892,
      "3907": 7893,
      "3815": 7894,
      "3034": 7895,
      "6663": 7896,
      "7672": 7897,
      "8559": 7898,
      "9585": 7899,
      "4454": 7900,
      "1813": 7901,
      "5514": 7902,
      "6095": 7903,
      "3278": 7904,
      "0988": 7905,
      "4589": 7906,
      "4961": 7907,
      "4938": 7908,
      "4238": 7909,
      "ĠĠĠĠĠĠĠĠĠĠĠĠĠĠĠĠĠĠ": 7910,
      "ĠĠĠĠĠĠĠĠĠĠĠĠĠĠĠĠĠĠĠĠĠĠĠĠĠĠĠĠĠĠĠĠĠĠĠĠĠĠĠĠĠ": 7911,
      "2344": 7912,
      "4708": 7913,
      "4740": 7914,
      "9788": 7915,
      "cacf": 7916,
      "ebdf": 7917,
      "2017": 7918,
      "edff": 7919,
      "2634": 7920,
      "0140": 7921,
      "0181": 7922,
      "9958": 7923,
      "efaa": 7924,
      "7550": 7925,
      "2452": 7926,
      "6417": 7927,
      "2588": 7928,
      "8434": 7929,
      "7097": 7930,
      "7907": 7931,
      "2124": 7932,
      "7837": 7933,
      "eeef": 7934,
      "eebf": 7935,
      "5485": 7936,
      "5418": 7937,
      "9485": 7938,
      "fdbb": 7939,
      "8899": 7940,
      "3673": 7941,
      "9136": 7942,
      "cfdd": 7943,
      "9800": 7944,
      "5564": 7945,
      "dfba": 7946,
      "1118": 7947,
      "fced": 7948,
      "fbbd": 7949,
      "ĠĠĠĠĠĠĠĠĠĠĠ": 7950,
      "4915": 7951,
      "2374": 7952,
      "5905": 7953,
      "9224": 7954,
      "ĠĠĠĠĠĠĠĠĠĠĠĠĠĠĠĠĠ": 7955,
      "3264": 7956,
      "cbfb": 7957,
      "dbfc": 7958,
      "dcdf": 7959,
      "ĠĠĠĠĠĠĠĠĠĠĠĠĠĠĠĠĠĠĠĠĠĠĠĠĠĠĠĠĠĠĠĠĠĠĠĠĠĠ": 7960,
      "7245": 7961,
      "9345": 7962,
      "2010": 7963,
      "2007": 7964,
      "0180": 7965,
      "9910": 7966,
      "9990": 7967,
      "6550": 7968,
      "7337": 7969,
      "6192": 7970,
      "3153": 7971,
      "6498": 7972,
      "8450": 7973,
      "8441": 7974,
      "7020": 7975,
      "7037": 7976,
      "7096": 7977,
      "7003": 7978,
      "7087": 7979,
      "7962": 7980,
      "2103": 7981,
      "2968": 7982,
      "0431": 7983,
      "7839": 7984,
      "7806": 7985,
      "2816": 7986,
      "6602": 7987,
      "9443": 7988,
      "7272": 7989,
      "1585": 7990,
      "8805": 7991,
      "9111": 7992,
      "2271": 7993,
      "2228": 7994,
      "4585": 7995,
      "4884": 7996,
      "6766": 7997,
      "2329": 7998,
      "4108": 7999,
      "5188": 8000,
      "4724": 8001,
      "eacb": 8002,
      "edce": 8003,
      "2663": 8004,
      "2610": 8005,
      "ecaa": 8006,
      "7433": 8007,
      "7416": 8008,
      "3452": 8009,
      "adbb": 8010,
      "6141": 8011,
      "7567": 8012,
      "7586": 8013,
      "6405": 8014,
      "6459": 8015,
      "2534": 8016,
      "7942": 8017,
      "6893": 8018,
      "6852": 8019,
      "7116": 8020,
      "3989": 8021,
      "2862": 8022,
      "2857": 8023,
      "3022": 8024,
      "6623": 8025,
      "1233": 8026,
      "7602": 8027,
      "deec": 8028,
      "0904": 8029,
      "4515": 8030,
      "dbbc": 8031,
      "fabd": 8032,
      "9399": 8033,
      "0635": 8034,
      "ĠĠĠĠĠĠĠĠĠĠĠĠĠĠĠĠĠĠĠ": 8035,
      "defa": 8036,
      "4840": 8037,
      "2042": 8038,
      "9934": 8039,
      "9917": 8040,
      "7456": 8041,
      "6562": 8042,
      "6559": 8043,
      "6105": 8044,
      "7588": 8045,
      "3108": 8046,
      "6911": 8047,
      "6469": 8048,
      "6480": 8049,
      "6456": 8050,
      "6453": 8051,
      "6482": 8052,
      "2540": 8053,
      "7063": 8054,
      "2123": 8055,
      "2186": 8056,
      "2192": 8057,
      "3589": 8058,
      "0465": 8059,
      "6863": 8060,
      "6819": 8061,
      "6857": 8062,
      "3819": 8063,
      "5424": 8064,
      "5446": 8065,
      "9590": 8066,
      "1508": 8067,
      "3602": 8068,
      "9899": 8069,
      "4873": 8070,
      "4814": 8071,
      "9078": 8072,
      "4914": 8073,
      "4608": 8074,
      "7647": 8075,
      "9344": 8076,
      "fafe": 8077,
      "0110": 8078,
      "6540": 8079,
      "acfe": 8080,
      "6153": 8081,
      "7511": 8082,
      "3143": 8083,
      "8403": 8084,
      "2197": 8085,
      "3552": 8086,
      "2923": 8087,
      "7173": 8088,
      "7110": 8089,
      "3936": 8090,
      "ffbb": 8091,
      "3829": 8092,
      "3878": 8093,
      "3086": 8094,
      "5494": 8095,
      "5410": 8096,
      "5493": 8097,
      "6606": 8098,
      "1499": 8099,
      "dddc": 8100,
      "9416": 8101,
      "7607": 8102,
      "cdbc": 8103,
      "cdfd": 8104,
      "3672": 8105,
      "baea": 8106,
      "0885": 8107,
      "0818": 8108,
      "3325": 8109,
      "7721": 8110,
      "7776": 8111,
      "6061": 8112,
      "4594": 8113,
      "daea": 8114,
      "2768": 8115,
      "8371": 8116,
      "1330": 8117,
      "eedc": 8118,
      "3649": 8119,
      "dccd": 8120,
      "cfda": 8121,
      "4615": 8122,
      "7244": 8123,
      "7754": 8124,
      "9648": 8125,
      "3453": 8126,
      "7376": 8127,
      "7316": 8128,
      "7571": 8129,
      "7562": 8130,
      "2460": 8131,
      "2447": 8132,
      "2593": 8133,
      "2596": 8134,
      "7086": 8135,
      "2116": 8136,
      "2183": 8137,
      "3565": 8138,
      "6898": 8139,
      "7165": 8140,
      "7124": 8141,
      "7189": 8142,
      "9509": 8143,
      "1575": 8144,
      "4411": 8145,
      "9105": 8146,
      "0898": 8147,
      "6022": 8148,
      "3237": 8149,
      "0909": 8150,
      "2273": 8151,
      "6769": 8152,
      "5095": 8153,
      "4191": 8154,
      "4098": 8155,
      "4601": 8156,
      "8600": 8157,
      "3355": 8158,
      "5745": 8159,
      "caeb": 8160,
      "2028": 8161,
      "eddd": 8162,
      "0174": 8163,
      "9909": 8164,
      "3482": 8165,
      "acfa": 8166,
      "7330": 8167,
      "3179": 8168,
      "3119": 8169,
      "3107": 8170,
      "6989": 8171,
      "8443": 8172,
      "7080": 8173,
      "7953": 8174,
      "2129": 8175,
      "2182": 8176,
      "3583": 8177,
      "0400": 8178,
      "6868": 8179,
      "6872": 8180,
      "7167": 8181,
      "7810": 8182,
      "7823": 8183,
      "0004": 8184,
      "5460": 8185,
      "7224": 8186,
      "3633": 8187,
      "4404": 8188,
      "4419": 8189,
      "aebc": 8190,
      "6039": 8191,
      "fbee": 8192,
      "5808": 8193,
      "3776": 8194,
      "5985": 8195,
      "2726": 8196,
      "0678": 8197,
      "4734": 8198,
      "0299": 8199,
      "7710": 8200,
      "deda": 8201,
      "9726": 8202,
      "9206": 8203,
      "0149": 8204,
      "9942": 8205,
      "3493": 8206,
      "3413": 8207,
      "7396": 8208,
      "7313": 8209,
      "6181": 8210,
      "6151": 8211,
      "7587": 8212,
      "3118": 8213,
      "2403": 8214,
      "6474": 8215,
      "2539": 8216,
      "2543": 8217,
      "8422": 8218,
      "8463": 8219,
      "8481": 8220,
      "7098": 8221,
      "7050": 8222,
      "7056": 8223,
      "7092": 8224,
      "2127": 8225,
      "2196": 8226,
      "3542": 8227,
      "3502": 8228,
      "0451": 8229,
      "6829": 8230,
      "3919": 8231,
      "2867": 8232,
      "8585": 8233,
      "8598": 8234,
      "7229": 8235,
      "8825": 8236,
      "9169": 8237,
      "1865": 8238,
      "3322": 8239,
      "1169": 8240,
      "6090": 8241,
      "0954": 8242,
      "4505": 8243,
      "8929": 8244,
      "4631": 8245,
      "1365": 8246,
      "9149": 8247,
      "2705": 8248,
      "4715": 8249,
      "8149": 8250,
      "aabb": 8251,
      "ebde": 8252,
      "2036": 8253,
      "2607": 8254,
      "0105": 8255,
      "9940": 8256,
      "9916": 8257,
      "7486": 8258,
      "3457": 8259,
      "7327": 8260,
      "6139": 8261,
      "3120": 8262,
      "6483": 8263,
      "7928": 8264,
      "2112": 8265,
      "2922": 8266,
      "0469": 8267,
      "0418": 8268,
      "7892": 8269,
      "2853": 8270,
      "ffac": 8271,
      "3056": 8272,
      "3052": 8273,
      "1465": 8274,
      "0561": 8275,
      "7227": 8276,
      "1515": 8277,
      "bebe": 8278,
      "9134": 8279,
      "cfbf": 8280,
      "0867": 8281,
      "3321": 8282,
      "5565": 8283,
      "7774": 8284,
      "4514": 8285,
      "6226": 8286,
      "1073": 8287,
      "3750": 8288,
      "1248": 8289,
      "1644": 8290,
      "4214": 8291,
      "4648": 8292,
      "5294": 8293,
      "2632": 8294,
      "0195": 8295,
      "9941": 8296,
      "7482": 8297,
      "6551": 8298,
      "7383": 8299,
      "3140": 8300,
      "2424": 8301,
      "2462": 8302,
      "6912": 8303,
      "6919": 8304,
      "6983": 8305,
      "6479": 8306,
      "6451": 8307,
      "8416": 8308,
      "7069": 8309,
      "7922": 8310,
      "3543": 8311,
      "7853": 8312,
      "3923": 8313,
      "6603": 8314,
      "9464": 8315,
      "9494": 8316,
      "8551": 8317,
      "8868": 8318,
      "8800": 8319,
      "4498": 8320,
      "0816": 8321,
      "3332": 8322,
      "1095": 8323,
      "5898": 8324,
      "2366": 8325,
      "9629": 8326,
      "9725": 8327,
      "3651": 8328,
      "3047": 8329,
      "3201": 8330,
      "4755": 8331,
      "9644": 8332,
      "2668": 8333,
      "0100": 8334,
      "7434": 8335,
      "7475": 8336,
      "3472": 8337,
      "6176": 8338,
      "3190": 8339,
      "2563": 8340,
      "8419": 8341,
      "8492": 8342,
      "3579": 8343,
      "2967": 8344,
      "2906": 8345,
      "6886": 8346,
      "7131": 8347,
      "7183": 8348,
      "7106": 8349,
      "2866": 8350,
      "3811": 8351,
      "5409": 8352,
      "aaac": 8353,
      "9565": 8354,
      "9525": 8355,
      "9558": 8356,
      "8860": 8357,
      "8896": 8358,
      "3679": 8359,
      "4494": 8360,
      "9100": 8361,
      "1878": 8362,
      "6274": 8363,
      "feea": 8364,
      "6764": 8365,
      "2728": 8366,
      "9374": 8367,
      "0301": 8368,
      "7753": 8369,
      "0388": 8370,
      "1844": 8371,
      "7255": 8372,
      "8018": 8373,
      "2626": 8374,
      "2650": 8375,
      "0143": 8376,
      "3430": 8377,
      "7360": 8378,
      "7386": 8379,
      "6119": 8380,
      "6140": 8381,
      "3198": 8382,
      "3189": 8383,
      "3151": 8384,
      "6982": 8385,
      "6439": 8386,
      "2170": 8387,
      "3551": 8388,
      "2902": 8389,
      "6859": 8390,
      "7829": 8391,
      "3820": 8392,
      "3859": 8393,
      "3886": 8394,
      "3092": 8395,
      "1404": 8396,
      "9404": 8397,
      "9400": 8398,
      "9486": 8399,
      "8504": 8400,
      "8581": 8401,
      "8884": 8402,
      "8811": 8403,
      "9104": 8404,
      "4590": 8405,
      "4808": 8406,
      "6236": 8407,
      "5894": 8408,
      "8065": 8409,
      "8054": 8410,
      "5304": 8411,
      "4774": 8412,
      "1775": 8413,
      "7718": 8414,
      "7688": 8415,
      "3045": 8416,
      "0694": 8417,
      "1794": 8418,
      "4394": 8419,
      "8014": 8420,
      "bbca": 8421,
      "dbba": 8422,
      "fafb": 8423,
      "2681": 8424,
      "0107": 8425,
      "9981": 8426,
      "efce": 8427,
      "3463": 8428,
      "6122": 8429,
      "6107": 8430,
      "3125": 8431,
      "3192": 8432,
      "2412": 8433,
      "7057": 8434,
      "7936": 8435,
      "6812": 8436,
      "7157": 8437,
      "7889": 8438,
      "3920": 8439,
      "3983": 8440,
      "2822": 8441,
      "2887": 8442,
      "3020": 8443,
      "3087": 8444,
      "1441": 8445,
      "9455": 8446,
      "0555": 8447,
      "8568": 8448,
      "9597": 8449,
      "4405": 8450,
      "4441": 8451,
      "9165": 8452,
      "9819": 8453,
      "dfad": 8454,
      "0908": 8455,
      "4506": 8456,
      "4805": 8457,
      "febd": 8458,
      "4904": 8459,
      "4954": 8460,
      "5988": 8461,
      "8964": 8462,
      "1605": 8463,
      "9320": 8464,
      "4372": 8465,
      "4604": 8466,
      "4235": 8467,
      "4784": 8468,
      "0784": 8469,
      "1784": 8470,
      "3268": 8471,
      "6268": 8472,
      "7994": 8473,
      "6995": 8474,
      "1044": 8475,
      "4288": 8476,
      "4264": 8477,
      "4845": 8478,
      "9255": 8479,
      "2022": 8480,
      "6588": 8481,
      "3492": 8482,
      "7379": 8483,
      "7582": 8484,
      "3161": 8485,
      "6902": 8486,
      "6490": 8487,
      "6427": 8488,
      "2559": 8489,
      "8410": 8490,
      "8456": 8491,
      "7912": 8492,
      "2142": 8493,
      "2982": 8494,
      "6822": 8495,
      "6880": 8496,
      "6882": 8497,
      "7832": 8498,
      "2856": 8499,
      "0081": 8500,
      "1455": 8501,
      "1406": 8502,
      "8801": 8503,
      "9175": 8504,
      "9124": 8505,
      "9195": 8506,
      "1191": 8507,
      "0974": 8508,
      "3773": 8509,
      "3778": 8510,
      "ĠĠĠĠĠĠĠĠĠĠ": 8511,
      "4985": 8512,
      "8901": 8513,
      "8904": 8514,
      "9775": 8515,
      "3688": 8516,
      "3845": 8517,
      "3350": 8518,
      "3008": 8519,
      "1754": 8520,
      "4732": 8521,
      "4695": 8522,
      "4269": 8523,
      "8991": 8524,
      "2628": 8525,
      "2672": 8526,
      "7457": 8527,
      "6506": 8528,
      "3433": 8529,
      "3427": 8530,
      "3486": 8531,
      "adfa": 8532,
      "3165": 8533,
      "3162": 8534,
      "3182": 8535,
      "6923": 8536,
      "6428": 8537,
      "6402": 8538,
      "2546": 8539,
      "2506": 8540,
      "7967": 8541,
      "2136": 8542,
      "3556": 8543,
      "3553": 8544,
      "2979": 8545,
      "0450": 8546,
      "6813": 8547,
      "7152": 8548,
      "3966": 8549,
      "2813": 8550,
      "0038": 8551,
      "1445": 8552,
      "1276": 8553,
      "9499": 8554,
      "0558": 8555,
      "9535": 8556,
      "9523": 8557,
      "8861": 8558,
      "4493": 8559,
      "9126": 8560,
      "dfcb": 8561,
      "6004": 8562,
      "caaf": 8563,
      "febb": 8564,
      "9065": 8565,
      "3720": 8566,
      "3725": 8567,
      "5984": 8568,
      "5195": 8569,
      "5699": 8570,
      "0384": 8571,
      "4274": 8572,
      "3847": 8573,
      "2842": 8574,
      "2999": 8575,
      "3040": 8576,
      "1714": 8577,
      "3844": 8578,
      "3211": 8579,
      "8654": 8580,
      "9614": 8581,
      "2682": 8582,
      "0164": 8583,
      "6516": 8584,
      "7370": 8585,
      "7566": 8586,
      "6922": 8587,
      "6910": 8588,
      "6419": 8589,
      "6450": 8590,
      "8432": 8591,
      "7856": 8592,
      "3963": 8593,
      "3880": 8594,
      "3802": 8595,
      "3053": 8596,
      "5456": 8597,
      "1412": 8598,
      "1488": 8599,
      "8554": 8600,
      "8590": 8601,
      "1535": 8602,
      "1554": 8603,
      "9870": 8604,
      "9891": 8605,
      "9803": 8606,
      "5585": 8607,
      "6320": 8608,
      "6770": 8609,
      "8977": 8610,
      "8191": 8611,
      "4665": 8612,
      "9765": 8613,
      "8299": 8614,
      "1765": 8615,
      "9548": 8616,
      "0645": 8617,
      "1254": 8618,
      "3245": 8619,
      "4204": 8620,
      "4049": 8621,
      "4395": 8622,
      "5204": 8623,
      "5708": 8624,
      "9285": 8625,
      "2692": 8626,
      "2602": 8627,
      "0147": 8628,
      "6522": 8629,
      "6129": 8630,
      "6108": 8631,
      "7573": 8632,
      "3124": 8633,
      "2443": 8634,
      "2497": 8635,
      "7023": 8636,
      "2120": 8637,
      "2122": 8638,
      "2966": 8639,
      "2933": 8640,
      "0404": 8641,
      "6807": 8642,
      "7821": 8643,
      "7867": 8644,
      "3972": 8645,
      "3927": 8646,
      "0035": 8647,
      "3072": 8648,
      "9461": 8649,
      "7633": 8650,
      "7222": 8651,
      "1558": 8652,
      "8835": 8653,
      "3677": 8654,
      "9874": 8655,
      "9839": 8656,
      "1104": 8657,
      "6023": 8658,
      "6334": 8659,
      "3774": 8660,
      "8984": 8661,
      "8035": 8662,
      "8384": 8663,
      "4335": 8664,
      "0679": 8665,
      "5671": 8666,
      "8638": 8667,
      "3681": 8668,
      "3310": 8669,
      "1041": 8670,
      "1685": 8671,
      "2204": 8672,
      "2244": 8673,
      "4844": 8674,
      "4042": 8675,
      "6319": 8676,
      "7208": 8677,
      "9745": 8678,
      "2677": 8679,
      "0135": 8680,
      "0104": 8681,
      "6577": 8682,
      "6187": 8683,
      "7529": 8684,
      "3169": 8685,
      "2433": 8686,
      "6976": 8687,
      "2573": 8688,
      "8446": 8689,
      "7007": 8690,
      "2953": 8691,
      "0428": 8692,
      "7136": 8693,
      "7828": 8694,
      "3804": 8695,
      "6622": 8696,
      "7623": 8697,
      "9599": 8698,
      "9500": 8699,
      "8829": 8700,
      "4459": 8701,
      "9168": 8702,
      "1873": 8703,
      "1825": 8704,
      "1109": 8705,
      "1196": 8706,
      "6074": 8707,
      "1935": 8708,
      "4908": 8709,
      "9330": 8710,
      "5625": 8711,
      "5684": 8712,
      "7658": 8713,
      "4148": 8714,
      "3261": 8715,
      "3269": 8716,
      "7840": 8717,
      "8845": 8718,
      "7649": 8719,
      "7611": 8720,
      "3650": 8721,
      "0311": 8722,
      "4745": 8723,
      "4041": 8724,
      "4739": 8725,
      "9738": 8726,
      "9658": 8727,
      "9351": 8728,
      "dcec": 8729,
      "feee": 8730,
      "2002": 8731,
      "2666": 8732,
      "6519": 8733,
      "3421": 8734,
      "6177": 8735,
      "2472": 8736,
      "2453": 8737,
      "6925": 8738,
      "6434": 8739,
      "6487": 8740,
      "0408": 8741,
      "7896": 8742,
      "0098": 8743,
      "3808": 8744,
      "3850": 8745,
      "3887": 8746,
      "1403": 8747,
      "9488": 8748,
      "9406": 8749,
      "0554": 8750,
      "0595": 8751,
      "8524": 8752,
      "1501": 8753,
      "1514": 8754,
      "8878": 8755,
      "8887": 8756,
      "3609": 8757,
      "9190": 8758,
      "0892": 8759,
      "9818": 8760,
      "5558": 8761,
      "6037": 8762,
      "3274": 8763,
      "2276": 8764,
      "1978": 8765,
      "4885": 8766,
      "1028": 8767,
      "4199": 8768,
      "8085": 8769,
      "0374": 8770,
      "9272": 8771,
      "4725": 8772,
      "3849": 8773,
      "3011": 8774,
      "3994": 8775,
      "7716": 8776,
      "3647": 8777,
      "7019": 8778,
      "2754": 8779,
      "4249": 8780,
      "4340": 8781,
      "4281": 8782,
      "6788": 8783,
      "7463": 8784,
      "6568": 8785,
      "6190": 8786,
      "7553": 8787,
      "2432": 8788,
      "2457": 8789,
      "6977": 8790,
      "6906": 8791,
      "6407": 8792,
      "8428": 8793,
      "2157": 8794,
      "3522": 8795,
      "6873": 8796,
      "7197": 8797,
      "7873": 8798,
      "3929": 8799,
      "3982": 8800,
      "5481": 8801,
      "1284": 8802,
      "1228": 8803,
      "9418": 8804,
      "0580": 8805,
      "9868": 8806,
      "3330": 8807,
      "1195": 8808,
      "3230": 8809,
      "1908": 8810,
      "3726": 8811,
      "6775": 8812,
      "6779": 8813,
      "4185": 8814,
      "8935": 8815,
      "5101": 8816,
      "9361": 8817,
      "8378": 8818,
      "9600": 8819,
      "5629": 8820,
      "5301": 8821,
      "4799": 8822,
      "1779": 8823,
      "8770": 8824,
      "1694": 8825,
      "4141": 8826,
      "3846": 8827,
      "7012": 8828,
      "4756": 8829,
      "4014": 8830,
      "5726": 8831,
      "5794": 8832,
      "5285": 8833,
      "8741": 8834,
      "8694": 8835,
      "8260": 8836,
      "9264": 8837,
      "2608": 8838,
      "6533": 8839,
      "3412": 8840,
      "3432": 8841,
      "7576": 8842,
      "3128": 8843,
      "3150": 8844,
      "6947": 8845,
      "6464": 8846,
      "6486": 8847,
      "2179": 8848,
      "2903": 8849,
      "0464": 8850,
      "2879": 8851,
      "ffde": 8852,
      "5435": 8853,
      "1224": 8854,
      "9449": 8855,
      "7675": 8856,
      "0500": 8857,
      "1588": 8858,
      "1510": 8859,
      "1590": 8860,
      "8895": 8861,
      "4412": 8862,
      "9174": 8863,
      "3339": 8864,
      "4566": 8865,
      "4899": 8866,
      "4830": 8867,
      "5891": 8868,
      "4165": 8869,
      "4161": 8870,
      "8909": 8871,
      "8061": 8872,
      "5191": 8873,
      "1675": 8874,
      "1631": 8875,
      "9366": 8876,
      "4769": 8877,
      "0284": 8878,
      "3298": 8879,
      "2264": 8880,
      "7614": 8881,
      "ĠĠĠĠĠĠĠĠĠĠĠĠĠ": 8882,
      "1848": 8883,
      "2745": 8884,
      "4209": 8885,
      "4718": 8886,
      "6244": 8887,
      "8730": 8888,
      "8760": 8889,
      "9215": 8890,
      "9794": 8891,
      "9045": 8892,
      "2662": 8893,
      "0156": 8894,
      "7317": 8895,
      "6150": 8896,
      "7522": 8897,
      "2557": 8898,
      "7196": 8899,
      "7107": 8900,
      "7880": 8901,
      "3986": 8902,
      "0008": 8903,
      "3832": 8904,
      "5461": 8905,
      "1468": 8906,
      "1495": 8907,
      "9420": 8908,
      "0584": 8909,
      "9510": 8910,
      "4438": 8911,
      "4455": 8912,
      "9825": 8913,
      "6069": 8914,
      "6072": 8915,
      "0906": 8916,
      "2275": 8917,
      "4560": 8918,
      "6229": 8919,
      "6272": 8920,
      "6772": 8921,
      "4163": 8922,
      "5909": 8923,
      "9638": 8924,
      "0338": 8925,
      "3016": 8926,
      "3752": 8927,
      "6019": 8928,
      "1314": 8929,
      "2248": 8930,
      "3344": 8931,
      "3745": 8932,
      "4244": 8933,
      "4308": 8934,
      "4295": 8935,
      "5749": 8936,
      "5795": 8937,
      "5318": 8938,
      "6398": 8939,
      "6390": 8940,
      "8844": 8941,
      "8652": 8942,
      "9298": 8943,
      "2027": 8944,
      "2003": 8945,
      "2670": 8946,
      "2687": 8947,
      "0160": 8948,
      "9949": 8949,
      "9943": 8950,
      "7423": 8951,
      "7322": 8952,
      "7352": 8953,
      "6109": 8954,
      "6142": 8955,
      "7559": 8956,
      "3113": 8957,
      "2474": 8958,
      "2439": 8959,
      "6939": 8960,
      "6937": 8961,
      "3519": 8962,
      "2907": 8963,
      "7134": 8964,
      "7163": 8965,
      "7103": 8966,
      "7852": 8967,
      "2877": 8968,
      "3833": 8969,
      "3823": 8970,
      "6670": 8971,
      "1410": 8972,
      "9481": 8973,
      "7679": 8974,
      "7221": 8975,
      "9508": 8976,
      "9513": 8977,
      "9829": 8978,
      "9816": 8979,
      "3334": 8980,
      "5554": 8981,
      "1185": 8982,
      "9088": 8983,
      "3779": 8984,
      "6725": 8985,
      "4909": 8986,
      "5904": 8987,
      "2779": 8988,
      "5199": 8989,
      "8365": 8990,
      "4635": 8991,
      "4638": 8992,
      "9275": 8993,
      "9784": 8994,
      "5768": 8995,
      "8775": 8996,
      "5226": 8997,
      "7849": 8998,
      "7713": 8999,
      "2316": 9000,
      "2844": 9001,
      "4254": 9002,
      "4294": 9003,
      "4685": 9004,
      "5785": 9005,
      "5848": 9006,
      "6745": 9007,
      "7348": 9008,
      "8263": 9009,
      "2023": 9010,
      "9975": 9011,
      "9919": 9012,
      "6558": 9013,
      "7397": 9014,
      "7577": 9015,
      "7513": 9016,
      "6920": 9017,
      "3507": 9018,
      "0429": 9019,
      "0406": 9020,
      "6883": 9021,
      "7193": 9022,
      "3925": 9023,
      "3818": 9024,
      "1405": 9025,
      "1491": 9026,
      "1275": 9027,
      "9498": 9028,
      "8518": 9029,
      "8511": 9030,
      "8509": 9031,
      "7277": 9032,
      "1553": 9033,
      "8821": 9034,
      "4480": 9035,
      "9896": 9036,
      "3372": 9037,
      "4591": 9038,
      "4522": 9039,
      "5054": 9040,
      "5954": 9041,
      "2729": 9042,
      "4026": 9043,
      "4605": 9044,
      "9673": 9045,
      "8639": 9046,
      "5335": 9047,
      "8784": 9048,
      "3843": 9049,
      "1543": 9050,
      "3263": 9051,
      "3993": 9052,
      "2991": 9053,
      "2268": 9054,
      "3380": 9055,
      "0649": 9056,
      "2394": 9057,
      "3240": 9058,
      "3735": 9059,
      "3391": 9060,
      "4616": 9061,
      "4749": 9062,
      "5689": 9063,
      "6741": 9064,
      "8688": 9065,
      "9090": 9066,
      "2077": 9067,
      "7429": 9068,
      "7389": 9069,
      "6110": 9070,
      "6157": 9071,
      "6418": 9072,
      "6463": 9073,
      "6462": 9074,
      "7082": 9075,
      "7979": 9076,
      "2113": 9077,
      "2117": 9078,
      "3862": 9079,
      "3856": 9080,
      "1469": 9081,
      "1226": 9082,
      "9591": 9083,
      "9552": 9084,
      "8863": 9085,
      "0811": 9086,
      "9820": 9087,
      "3371": 9088,
      "6075": 9089,
      "6028": 9090,
      "4810": 9091,
      "5026": 9092,
      "4964": 9093,
      "4960": 9094,
      "2372": 9095,
      "4139": 9096,
      "4338": 9097,
      "4728": 9098,
      "8225": 9099,
      "1799": 9100,
      "1724": 9101,
      "3841": 9102,
      "7648": 9103,
      "7615": 9104,
      "3657": 9105,
      "7680": 9106,
      "6010": 9107,
      "1210": 9108,
      "1398": 9109,
      "2215": 9110,
      "2739": 9111,
      "3754": 9112,
      "4709": 9113,
      "4391": 9114,
      "4848": 9115,
      "4999": 9116,
      "6285": 9117,
      "6308": 9118,
      "7660": 9119,
      "8254": 9120,
      "9844": 9121,
      "9698": 9122,
      "9358": 9123,
      "2093": 9124,
      "0193": 9125,
      "9962": 9126,
      "3483": 9127,
      "7392": 9128,
      "7357": 9129,
      "6135": 9130,
      "6103": 9131,
      "7583": 9132,
      "3176": 9133,
      "2420": 9134,
      "6979": 9135,
      "6972": 9136,
      "6956": 9137,
      "6446": 9138,
      "2576": 9139,
      "8453": 9140,
      "2130": 9141,
      "3525": 9142,
      "2936": 9143,
      "0483": 9144,
      "3077": 9145,
      "1270": 9146,
      "1229": 9147,
      "0528": 9148,
      "8538": 9149,
      "9550": 9150,
      "9557": 9151,
      "1578": 9152,
      "8898": 9153,
      "9179": 9154,
      "0809": 9155,
      "1871": 9156,
      "4898": 9157,
      "5878": 9158,
      "3728": 9159,
      "6774": 9160,
      "4064": 9161,
      "8038": 9162,
      "5104": 9163,
      "4661": 9164,
      "4639": 9165,
      "4771": 9166,
      "5778": 9167,
      "3351": 9168,
      "7847": 9169,
      "7613": 9170,
      "7681": 9171,
      "0358": 9172,
      "1204": 9173,
      "1744": 9174,
      "4746": 9175,
      "4754": 9176,
      "4704": 9177,
      "4255": 9178,
      "4689": 9179,
      "4846": 9180,
      "5650": 9181,
      "5711": 9182,
      "6005": 9183,
      "7345": 9184,
      "7788": 9185,
      "8215": 9186,
      "8211": 9187,
      "8315": 9188,
      "9044": 9189,
      "0186": 9190,
      "6173": 9191,
      "6163": 9192,
      "7579": 9193,
      "6470": 9194,
      "2574": 9195,
      "8406": 9196,
      "8407": 9197,
      "3516": 9198,
      "6832": 9199,
      "6806": 9200,
      "0069": 9201,
      "0083": 9202,
      "6628": 9203,
      "0594": 9204,
      "8501": 9205,
      "8584": 9206,
      "8528": 9207,
      "7232": 9208,
      "1831": 9209,
      "1835": 9210,
      "1839": 9211,
      "7725": 9212,
      "4538": 9213,
      "4595": 9214,
      "4879": 9215,
      "5805": 9216,
      "5819": 9217,
      "9004": 9218,
      "5031": 9219,
      "9377": 9220,
      "8375": 9221,
      "4720": 9222,
      "1773": 9223,
      "3014": 9224,
      "7841": 9225,
      "3997": 9226,
      "7645": 9227,
      "1144": 9228,
      "4947": 9229,
      "3614": 9230,
      "7759": 9231,
      "9141": 9232,
      "2348": 9233,
      "4791": 9234,
      "4342": 9235,
      "4710": 9236,
      "4358": 9237,
      "4659": 9238,
      "5210": 9239,
      "6395": 9240,
      "7344": 9241,
      "2057": 9242,
      "2678": 9243,
      "9980": 9244,
      "6570": 9245,
      "6592": 9246,
      "6197": 9247,
      "3103": 9248,
      "6429": 9249,
      "2562": 9250,
      "7974": 9251,
      "0448": 9252,
      "6809": 9253,
      "6827": 9254,
      "7179": 9255,
      "7178": 9256,
      "7897": 9257,
      "7802": 9258,
      "3063": 9259,
      "5415": 9260,
      "5419": 9261,
      "5451": 9262,
      "1456": 9263,
      "9491": 9264,
      "8508": 9265,
      "8516": 9266,
      "9524": 9267,
      "9106": 9268,
      "0864": 9269,
      "9871": 9270,
      "1804": 9271,
      "1819": 9272,
      "5501": 9273,
      "5521": 9274,
      "1184": 9275,
      "2279": 9276,
      "4861": 9277,
      "4933": 9278,
      "4134": 9279,
      "4025": 9280,
      "4035": 9281,
      "1699": 9282,
      "4330": 9283,
      "9671": 9284,
      "1375": 9285,
      "9273": 9286,
      "8721": 9287,
      "7651": 9288,
      "7655": 9289,
      "2841": 9290,
      "6269": 9291,
      "3311": 9292,
      "2996": 9293,
      "2351": 9294,
      "7999": 9295,
      "9146": 9296,
      "0205": 9297,
      "0290": 9298,
      "0688": 9299,
      "0660": 9300,
      "1380": 9301,
      "3341": 9302,
      "3744": 9303,
      "3730": 9304,
      "4741": 9305,
      "4217": 9306,
      "4332": 9307,
      "4081": 9308,
      "4096": 9309,
      "5780": 9310,
      "6694": 9311,
      "6658": 9312,
      "6843": 9313,
      "7744": 9314,
      "7295": 9315,
      "8341": 9316,
      "8394": 9317,
      "8705": 9318,
      "8648": 9319,
      "8385": 9320,
      "8999": 9321,
      "9791": 9322,
      "9307": 9323,
      "9687": 9324,
      "2083": 9325,
      "2636": 9326,
      "2642": 9327,
      "9979": 9328,
      "7496": 9329,
      "7312": 9330,
      "7307": 9331,
      "6170": 9332,
      "6137": 9333,
      "3130": 9334,
      "6460": 9335,
      "2537": 9336,
      "8483": 9337,
      "8413": 9338,
      "2976": 9339,
      "7176": 9340,
      "7886": 9341,
      "7857": 9342,
      "0065": 9343,
      "0050": 9344,
      "5459": 9345,
      "6630": 9346,
      "6662": 9347,
      "9451": 9348,
      "0503": 9349,
      "9511": 9350,
      "1581": 9351,
      "8879": 9352,
      "3603": 9353,
      "4475": 9354,
      "9138": 9355,
      "1824": 9356,
      "1198": 9357,
      "6027": 9358,
      "3279": 9359,
      "4598": 9360,
      "4862": 9361,
      "9021": 9362,
      "4120": 9363,
      "4198": 9364,
      "4069": 9365,
      "8101": 9366,
      "4301": 9367,
      "4629": 9368,
      "4231": 9369,
      "8701": 9370,
      "3840": 9371,
      "3710": 9372,
      "3262": 9373,
      "3648": 9374,
      "1658": 9375,
      "1659": 9376,
      "2285": 9377,
      "2790": 9378,
      "3251": 9379,
      "4344": 9380,
      "4202": 9381,
      "4348": 9382,
      "4645": 9383,
      "5654": 9384,
      "5014": 9385,
      "8345": 9386,
      "8744": 9387,
      "8219": 9388,
      "9789": 9389,
      "2639": 9390,
      "2660": 9391,
      "2603": 9392,
      "7324": 9393,
      "7592": 9394,
      "6968": 9395,
      "6932": 9396,
      "6406": 9397,
      "7027": 9398,
      "3521": 9399,
      "3533": 9400,
      "3559": 9401,
      "0496": 9402,
      "7817": 9403,
      "3959": 9404,
      "3896": 9405,
      "5470": 9406,
      "9460": 9407,
      "9448": 9408,
      "0524": 9409,
      "8586": 9410,
      "1524": 9411,
      "4407": 9412,
      "3379": 9413,
      "6066": 9414,
      "6096": 9415,
      "3223": 9416,
      "6331": 9417,
      "4528": 9418,
      "4895": 9419,
      "1038": 9420,
      "1085": 9421,
      "5825": 9422,
      "4138": 9423,
      "4066": 9424,
      "5171": 9425,
      "4361": 9426,
      "9699": 9427,
      "1301": 9428,
      "9277": 9429,
      "9770": 9430,
      "0238": 9431,
      "3010": 9432,
      "7711": 9433,
      "2313": 9434,
      "ĠĠĠĠĠĠĠĠĠĠĠĠĠĠĠĠĠĠĠĠĠĠĠĠĠĠĠĠĠĠĠĠĠĠĠĠĠ": 9435,
      "0214": 9436,
      "0049": 9437,
      "0741": 9438,
      "0395": 9439,
      "0045": 9440,
      "0609": 9441,
      "1743": 9442,
      "3781": 9443,
      "3740": 9444,
      "4647": 9445,
      "5738": 9446,
      "5398": 9447,
      "6345": 9448,
      "6350": 9449,
      "8739": 9450,
      "8644": 9451,
      "8758": 9452,
      "9318": 9453,
      "9647": 9454,
      "2620": 9455,
      "9983": 9456,
      "7516": 9457,
      "7517": 9458,
      "3174": 9459,
      "2577": 9460,
      "2583": 9461,
      "2592": 9462,
      "8467": 9463,
      "7033": 9464,
      "6803": 9465,
      "7877": 9466,
      "3979": 9467,
      "0075": 9468,
      "5411": 9469,
      "6677": 9470,
      "8556": 9471,
      "7228": 9472,
      "9506": 9473,
      "1504": 9474,
      "1527": 9475,
      "8810": 9476,
      "4449": 9477,
      "9113": 9478,
      "1820": 9479,
      "1809": 9480,
      "6097": 9481,
      "2230": 9482,
      "6376": 9483,
      "1075": 9484,
      "5801": 9485,
      "4962": 9486,
      "2365": 9487,
      "4054": 9488,
      "8095": 9489,
      "9324": 9490,
      "4328": 9491,
      "1399": 9492,
      "5328": 9493,
      "5366": 9494,
      "9771": 9495,
      "0771": 9496,
      "8237": 9497,
      "3266": 9498,
      "7845": 9499,
      "7846": 9500,
      "3644": 9501,
      "2995": 9502,
      "3751": 9503,
      "1956": 9504,
      "2781": 9505,
      "3785": 9506,
      "4208": 9507,
      "4040": 9508,
      "4355": 9509,
      "4089": 9510,
      "5655": 9511,
      "6754": 9512,
      "6008": 9513,
      "7794": 9514,
      "7731": 9515,
      "8248": 9516,
      "8285": 9517,
      "9309": 9518,
      "9758": 9519,
      "2676": 9520,
      "2667": 9521,
      "0146": 9522,
      "6509": 9523,
      "6589": 9524,
      "6581": 9525,
      "3116": 9526,
      "3186": 9527,
      "6967": 9528,
      "6489": 9529,
      "6496": 9530,
      "7028": 9531,
      "7072": 9532,
      "0479": 9533,
      "0468": 9534,
      "0467": 9535,
      "6821": 9536,
      "3916": 9537,
      "2823": 9538,
      "6620": 9539,
      "1426": 9540,
      "1470": 9541,
      "9434": 9542,
      "9475": 9543,
      "9480": 9544,
      "0513": 9545,
      "4470": 9546,
      "4491": 9547,
      "9808": 9548,
      "1801": 9549,
      "1861": 9550,
      "1877": 9551,
      "3320": 9552,
      "3378": 9553,
      "1188": 9554,
      "3234": 9555,
      "4520": 9556,
      "4508": 9557,
      "1960": 9558,
      "4835": 9559,
      "4836": 9560,
      "6230": 9561,
      "5811": 9562,
      "4984": 9563,
      "2721": 9564,
      "8064": 9565,
      "8174": 9566,
      "5168": 9567,
      "7263": 9568,
      "4370": 9569,
      "4632": 9570,
      "9605": 9571,
      "1368": 9572,
      "4224": 9573,
      "8768": 9574,
      "1002": 9575,
      "3718": 9576,
      "7843": 9577,
      "7848": 9578,
      "2350": 9579,
      "1141": 9580,
      "0744": 9581,
      "1344": 9582,
      "1704": 9583,
      "1641": 9584,
      "2345": 9585,
      "4123": 9586,
      "4219": 9587,
      "4389": 9588,
      "5254": 9589,
      "5736": 9590,
      "5258": 9591,
      "5789": 9592,
      "5305": 9593,
      "5315": 9594,
      "5718": 9595,
      "6794": 9596,
      "6714": 9597,
      "6695": 9598,
      "6040": 9599,
      "7646": 9600,
      "7349": 9601,
      "8708": 9602,
      "8396": 9603,
      "8660": 9604,
      "9294": 9605,
      "9289": 9606,
      "9718": 9607,
      "9386": 9608,
      "2627": 9609,
      "0198": 9610,
      "9974": 9611,
      "6511": 9612,
      "6586": 9613,
      "6542": 9614,
      "7339": 9615,
      "6117": 9616,
      "3129": 9617,
      "3183": 9618,
      "3142": 9619,
      "2479": 9620,
      "6475": 9621,
      "2522": 9622,
      "2507": 9623,
      "3586": 9624,
      "7123": 9625,
      "7833": 9626,
      "7859": 9627,
      "3947": 9628,
      "5467": 9629,
      "5449": 9630,
      "5423": 9631,
      "1446": 9632,
      "1238": 9633,
      "9450": 9634,
      "7220": 9635,
      "1586": 9636,
      "4408": 9637,
      "9119": 9638,
      "6030": 9639,
      "0901": 9640,
      "4534": 9641,
      "4580": 9642,
      "4860": 9643,
      "5098": 9644,
      "4924": 9645,
      "2334": 9646,
      "4136": 9647,
      "8138": 9648,
[...]
